<unk>	0
<s>	0
</s>	0
"	-3.21252
▁"	-3.27016
.	-3.47023
고	-3.89933
을	-4.14157
의	-4.41298
를	-4.58428
며	-4.58902
,	-4.6133
는	-4.6311
▁말했다	-4.93697
가	-4.94805
▁	-4.99918
은	-5.109
▁수	-5.13151
에	-5.14456
이	-5.15281
▁것	-5.17207
▁있다	-5.20734
이라고	-5.26528
도	-5.34363
'	-5.66972
▁밝혔다	-5.76073
과	-5.81677
▁'	-5.85059
▁있는	-5.85335
일	-5.8939
▁이	-5.90555
▁한다	-5.93953
이라며	-5.99308
▁관계자는	-6.00277
▁한	-6.00802
▁그는	-6.0142
로	-6.13359
▁등	-6.14632
▁전	-6.15033
에서	-6.19011
와	-6.19603
·	-6.19975
라고	-6.21785
▁대해	-6.22302
▁대한	-6.22309
으로	-6.22524
▁했다	-6.27785
▁통해	-6.30533
한	-6.406
▁이어	-6.40867
▁위해	-6.41018
인	-6.42788
▁없다	-6.43179
▁김	-6.47236
▁설명했다	-6.48811
▁할	-6.5269
▁강조했다	-6.54537
▁것으로	-6.56237
▁이날	-6.57034
년	-6.61908
▁더	-6.62141
▁것은	-6.62679
▁박	-6.63278
▁안	-6.64601
면서	-6.67831
▁또	-6.69126
만	-6.69134
라며	-6.79923
▁의원은	-6.81758
▁것이	-6.82392
▁1	-6.83493
할	-6.85488
▁하는	-6.86473
▁덧붙였다	-6.90777
▁그	-6.93192
▁전했다	-6.93337
▁될	-6.93468
월	-6.9469
▁때문에	-6.94954
▁위한	-6.96698
▁대표는	-6.9862
▁때	-7.0495
▁3	-7.0532
▁함께	-7.06911
▁2	-7.07809
▁있도록	-7.08132
▁우리	-7.12195
나	-7.13477
지	-7.14183
▁게	-7.16352
▁지적했다	-7.20109
▁관련	-7.20685
▁중	-7.2104
▁큰	-7.21668
▁잘	-7.22311
다	-7.22937
▁것을	-7.24424
▁및	-7.24825
▁아니라	-7.26785
▁하고	-7.27943
▁많은	-7.2813
▁주장했다	-7.30885
▁다른	-7.32303
▁이에	-7.33908
▁대통령은	-7.34076
▁문	-7.34833
까지	-7.35582
이번	-7.36365
▁등을	-7.36521
▁지난	-7.38053
▁4	-7.38293
▁없는	-7.3832
▁있을	-7.38323
▁그러면서	-7.39723
하게	-7.40556
▁같은	-7.41908
라는	-7.44202
▁같다	-7.44312
▁경우	-7.45927
▁정	-7.47834
▁많이	-7.48386
하는	-7.48585
▁감독은	-7.49853
▁따라	-7.54656
▁가장	-7.54909
▁이같이	-7.55561
하고	-7.5576
▁만큼	-7.56018
▁뒤	-7.56173
▁모든	-7.57376
▁5	-7.57735
▁있어	-7.58311
▁데	-7.58832
대	-7.58944
해	-7.61415
게	-7.61767
이나	-7.61911
▁된다	-7.62508
▁좋은	-7.62611
▁이번	-7.62768
▁대해서는	-7.62853
▁않고	-7.63737
▁아니다	-7.63849
▁다시	-7.64784
▁한국	-7.64994
▁10	-7.66203
▁됐다	-7.66823
▁바란다	-7.66854
▁새로운	-7.66883
▁대변인은	-7.67597
▁다양한	-7.6861
▁후	-7.68865
이라는	-7.69988
▁생각한다	-7.70247
▁당시	-7.71312
▁이후	-7.71388
▁다	-7.71535
▁모두	-7.71649
▁교수는	-7.72622
자	-7.74144
서	-7.74479
▁열린	-7.75551
기	-7.76292
시	-7.76538
▁제	-7.77619
들이	-7.78819
적인	-7.79209
면	-7.79571
에게	-7.80234
▁내	-7.81382
▁최	-7.82451
▁않았다	-7.83316
▁갖고	-7.83477
▁더욱	-7.83712
▁있고	-7.84043
▁이런	-7.85013
▁6	-7.85245
했다	-7.85518
▁않은	-7.87238
▁중국	-7.87403
히	-7.881
▁미국	-7.88279
차	-7.90087
▁연구원은	-7.90325
▁정부	-7.91274
▁필요하다	-7.91418
▁대통령이	-7.91753
▁있었다	-7.91906
▁대통령	-7.92473
▁국회	-7.92563
▁문제가	-7.93353
▁청와대	-7.93874
보다	-7.93936
▁두	-7.94493
▁건	-7.95252
▁것이다	-7.95299
▁하지	-7.95455
▁해야	-7.95577
▁장관은	-7.9571
▁어떤	-7.96163
▁없이	-7.96381
▁계획	-7.96653
▁회장은	-7.96701
▁그런	-7.97557
▁바	-7.97873
▁이상	-7.97955
▁있지만	-7.98704
된	-7.9871
▁어떻게	-7.98842
▁이를	-7.98876
▁관련해	-7.99026
▁조	-7.99151
▁보고	-7.99185
▁직접	-7.99451
▁당	-7.99748
▁해	-7.99815
▁만나	-7.99844
▁않다	-8.00183
▁문제	-8.01145
▁보인다	-8.01749
▁국내	-8.0211
▁북한	-8.02202
하지	-8.02547
▁오전	-8.02736
▁등의	-8.02806
씨는	-8.02952
▁최근	-8.04012
▁않을	-8.04171
▁하지만	-8.04855
▁입장을	-8.05056
▁있다는	-8.0553
▁위원장은	-8.05707
▁새누리당	-8.05943
▁일	-8.06215
우리	-8.0666
▁오후	-8.0707
▁않는다	-8.07372
▁볼	-8.07945
▁유	-8.08336
▁계속	-8.08407
▁하겠다	-8.09146
▁서울	-8.09566
▁경제	-8.11431
▁7	-8.11642
▁자신의	-8.11777
▁매우	-8.12136
▁측은	-8.12403
▁비판했다	-8.12722
▁가능성이	-8.13014
▁간	-8.144
▁특히	-8.14413
▁된	-8.14522
▁국민의	-8.15046
▁A	-8.15172
▁않는	-8.15978
▁지역	-8.16316
박	-8.16583
▁여러	-8.16605
▁줄	-8.16774
▁경기	-8.16867
▁높은	-8.17341
▁원내대표는	-8.17423
▁동안	-8.18839
▁중요한	-8.18932
▁현재	-8.18976
▁같이	-8.1936
▁국민	-8.19368
▁9	-8.19453
▁되는	-8.1958
▁제대로	-8.19609
▁문제를	-8.20243
▁예정	-8.20605
▁8	-8.20714
▁역시	-8.20738
▁경찰	-8.20981
▁앞서	-8.20983
▁글로벌	-8.21178
▁검찰	-8.21369
▁후보는	-8.22423
▁역할을	-8.2249
▁최선을	-8.22537
▁싶다	-8.22711
▁돼	-8.22733
현재	-8.23208
▁대통령의	-8.23587
▁정부가	-8.23843
▁일부	-8.23901
▁아닌	-8.24066
▁시장	-8.24371
했던	-8.2478
▁신	-8.24892
처럼	-8.25102
던	-8.25239
부터	-8.25635
▁과정에서	-8.25766
▁답했다	-8.26122
▁정부의	-8.26443
▁상황	-8.27018
▁홍	-8.28701
최근	-8.2928
▁박근혜	-8.29355
라	-8.29894
▁너무	-8.29898
▁필요가	-8.29953
▁한편	-8.30139
▁당부했다	-8.30248
▁일이	-8.30409
개	-8.30499
▁따른	-8.30583
▁20	-8.30584
▁등에	-8.30891
▁일본	-8.31035
▁달라	-8.31171
조	-8.32192
그	-8.33051
▁필요한	-8.33202
▁말을	-8.33461
▁앞으로	-8.33615
면서도	-8.34282
▁있는데	-8.34373
▁세계	-8.34899
▁어렵다	-8.34904
▁크게	-8.3504
▁적극	-8.35041
▁이미	-8.35865
▁시	-8.36571
선	-8.36941
▁강	-8.37049
▁황	-8.37523
지난	-8.37539
▁추가	-8.37633
▁나갈	-8.38064
▁뿐	-8.38109
▁기대한다	-8.3844
하면	-8.38595
▁못	-8.38616
▁알고	-8.38724
▁것도	-8.38773
▁아울러	-8.39064
미	-8.39171
▁상황에서	-8.39444
▁좀	-8.39459
에도	-8.39511
▁보면	-8.3962
될	-8.39734
▁윤	-8.39917
▁재판부는	-8.40038
▁사장은	-8.40067
앞으로	-8.40116
▁대표	-8.40564
▁의견을	-8.41333
▁결과	-8.41478
▁어려운	-8.41529
▁질문에	-8.41835
▁북한의	-8.42071
-	-8.42081
▁있게	-8.42362
▁들과	-8.42407
▁책임을	-8.4256
▁도움이	-8.42878
▁영향을	-8.43114
▁해서	-8.43643
적	-8.43654
▁노력을	-8.4382
▁12	-8.43917
▁지난해	-8.44022
해야	-8.44226
제	-8.44307
▁주	-8.4462
▁정도	-8.44884
이다	-8.45011
하기	-8.456
▁중요하다	-8.45765
▁반드시	-8.45966
▁번	-8.46255
▁받고	-8.4635
▁받은	-8.46353
▁본다	-8.46634
▁점을	-8.4716
▁없었다	-8.48026
▁사업	-8.48098
▁국가	-8.48435
▁문재인	-8.48951
에는	-8.49312
▁것에	-8.49722
▁사람이	-8.49794
▁물론	-8.50539
▁우리가	-8.50737
하면서	-8.50789
억	-8.50815
▁지	-8.50979
▁지금	-8.51101
▁올해	-8.51345
▁지속적으로	-8.51379
▁투자	-8.5143
▁하면	-8.51543
2	-8.51576
▁보다	-8.52041
▁11	-8.52067
▁임	-8.52261
▁전혀	-8.52364
▁정책	-8.52517
▁후보	-8.53008
▁민주당	-8.53125
▁많다	-8.53604
▁그러나	-8.53679
김	-8.5384
해서	-8.54358
▁자리에서	-8.54406
▁수도	-8.54435
▁평가했다	-8.54489
▁서	-8.54785
▁이와	-8.55107
▁국회에서	-8.55198
▁온	-8.55233
▁가지고	-8.55918
▁먼저	-8.56138
하지만	-8.5635
문	-8.56441
▁아직	-8.56486
▁점	-8.5665
▁한다는	-8.56857
야	-8.57059
▁만들어	-8.57206
진	-8.57223
지금	-8.57439
▁어느	-8.57549
▁30	-8.58311
▁모습을	-8.58504
▁기업	-8.5862
▁말	-8.58635
▁등이	-8.587
▁바로	-8.58946
들은	-8.59039
▁때문	-8.5947
▁대표가	-8.5952
▁첫	-8.59545
▁못한	-8.5963
▁장	-8.59696
오늘	-8.60232
▁하나	-8.60258
1	-8.60403
전	-8.60922
▁향후	-8.61009
중	-8.61327
▁하는데	-8.6133
▁충분히	-8.61893
▁수밖에	-8.62669
앞으로도	-8.62805
▁인해	-8.63035
▁해외	-8.63247
들을	-8.63964
▁목소리를	-8.64209
한다	-8.64357
▁지원	-8.64432
▁두고	-8.64893
▁의원	-8.65039
▁회사	-8.65135
▁못했다	-8.65208
들의	-8.65313
▁중심으로	-8.65652
▁원	-8.66026
성	-8.66396
▁힘을	-8.66413
▁조사	-8.66494
하며	-8.66564
▁수사	-8.6672
▁또한	-8.66767
▁위해서는	-8.66925
▁오늘	-8.66932
명	-8.67076
▁사회적	-8.67393
▁사회	-8.67666
▁확대	-8.6789
▁인터뷰에서	-8.68198
▁되고	-8.68217
당	-8.68259
▁보였다	-8.68742
장은	-8.68836
▁스스로	-8.68859
▁정치	-8.68867
▁등으로	-8.69181
▁좋겠다	-8.69734
▁오	-8.70484
▁협력	-8.70503
▁대해서도	-8.70585
안	-8.70705
▁있기	-8.70722
▁되면	-8.70758
▁주요	-8.70956
▁의원이	-8.71251
▁대선	-8.71544
하도록	-8.7199
특히	-8.72013
▁상황을	-8.72023
상	-8.72404
▁이렇게	-8.72527
주	-8.7255
▁가진	-8.72562
▁다만	-8.72625
데	-8.72675
▁경쟁력	-8.72918
▁따르면	-8.73262
▁정말	-8.73611
▁해당	-8.73834
엔	-8.73993
▁통한	-8.74179
▁대해선	-8.74743
이런	-8.74864
원	-8.74904
▁방안을	-8.74926
▁받을	-8.75067
▁일을	-8.75089
▁적극적으로	-8.75141
▁않도록	-8.75155
3	-8.75229
▁미	-8.7525
▁크다	-8.75611
▁측	-8.76472
▁열고	-8.77125
▁왔다	-8.7717
▁가운데	-8.77274
한국	-8.77287
▁있다고	-8.77336
▁한반도	-8.77564
▁말한	-8.77607
▁사실	-8.77612
▁없고	-8.77893
▁노력하겠다	-8.77898
▁차원에서	-8.77904
형	-8.78256
인데	-8.78358
▁예산	-8.78364
▁밝힌	-8.78513
▁새	-8.78666
수	-8.78729
▁분석했다	-8.78819
▁국민의당	-8.78857
▁서비스	-8.79407
▁결국	-8.79578
▁관심을	-8.79585
올해	-8.79979
▁사실을	-8.80035
했고	-8.80113
▁핵심	-8.80382
▁왜	-8.80498
지만	-8.81159
▁기존	-8.81433
▁촉구했다	-8.81515
▁되지	-8.81547
▁걸	-8.81659
정	-8.81711
▁사건	-8.81754
▁않아	-8.81847
▁오히려	-8.82231
▁가지	-8.82253
부	-8.82413
▁손	-8.82767
▁양	-8.8286
분기	-8.82867
여	-8.82921
▁그렇게	-8.83004
▁다하겠다	-8.83143
▁없을	-8.83201
▁적이	-8.83768
돼	-8.83804
▁바탕으로	-8.83835
▁서로	-8.84243
▁꼭	-8.84293
▁규모	-8.84659
▁시간이	-8.84673
사	-8.84956
▁뜻을	-8.85072
▁알	-8.8536
▁정도로	-8.85666
▁정치적	-8.85816
▁교육	-8.85913
▁빨리	-8.85982
억원	-8.86277
▁받았다	-8.86377
▁기회를	-8.86481
▁이들은	-8.86615
▁우	-8.8665
▁사드	-8.86756
우리는	-8.87029
▁내가	-8.87079
▁정부는	-8.87243
▁미사일	-8.87284
▁돈을	-8.87305
▁현	-8.87374
▁날	-8.87393
▁내용을	-8.87566
▁상황이	-8.87691
▁각	-8.87908
▁일자리	-8.87912
▁아니냐	-8.88073
되는	-8.88137
▁내년	-8.88249
년간	-8.88757
어	-8.88788
▁못하고	-8.88898
▁성장	-8.89055
▁LG	-8.89163
▁문제는	-8.89343
▁15	-8.8948
이라	-8.90023
▁총리는	-8.90253
씨가	-8.90295
▁금융	-8.90494
▁결과를	-8.90639
▁해도	-8.90723
▁서비스를	-8.90835
▁진행	-8.90909
▁회견을	-8.9098
▁앞두고	-8.91699
▁있지	-8.92175
▁문제에	-8.92204
▁중인	-8.92969
지난해	-8.93062
▁올	-8.93095
▁것과	-8.93229
▁이제	-8.93256
▁높였다	-8.93314
▁업계	-8.93487
▁100	-8.93528
하거나	-8.93551
세	-8.94043
▁군	-8.94166
이라면서	-8.9417
용	-8.94375
▁후보가	-8.94396
장	-8.9457
▁받는	-8.94633
▁우리의	-8.94675
▁회장	-8.94961
▁그리고	-8.95045
길	-8.95142
▁제가	-8.95247
▁사고	-8.95332
▁권	-8.95345
▁송	-8.95428
신	-8.95483
▁국민이	-8.96006
▁않으면	-8.96141
도록	-8.96287
▁참여	-8.96545
▁사람들이	-8.96621
▁약	-8.97182
▁갈	-8.9722
▁SK	-8.97325
▁시장은	-8.97359
분	-8.97597
▁대한민국	-8.97633
▁생각	-8.97969
▁몇	-8.98282
니	-8.98312
▁문화	-8.98475
▁과거	-8.98495
▁채	-8.98556
▁전망했다	-8.98692
▁공식	-8.9898
▁국방부	-8.99403
▁판단했다	-8.9993
▁보니	-9.00019
▁조치를	-9.00283
▁기간	-9.00345
▁개발	-9.00348
▁지원을	-9.00599
더	-9.00611
▁지난달	-9.00702
▁본	-9.00806
▁인한	-9.00914
▁대비	-9.00935
▁팀	-9.01329
▁조금	-9.01603
비	-9.01683
▁피해	-9.02171
▁고객	-9.02237
▁핵	-9.02411
▁가격	-9.02414
▁비해	-9.02594
▁운영	-9.0261
▁만난	-9.02651
회	-9.03086
▁전에	-9.03105
▁만드는	-9.03271
▁사실상	-9.03438
에서도	-9.03484
▁양국	-9.03532
내	-9.03659
▁열심히	-9.03684
두	-9.03738
▁나	-9.03778
▁수준	-9.03794
▁있으며	-9.03881
중국	-9.03943
하겠다	-9.04043
▁인사	-9.0412
같은	-9.04144
▁변호사는	-9.04244
박근혜	-9.04311
▁말이	-9.04312
▁노	-9.04388
▁반면	-9.0441
아	-9.0458
▁최대	-9.04632
▁정책을	-9.04671
▁처음	-9.04723
▁추진	-9.04724
▁준비	-9.0523
▁여전히	-9.0527
거나	-9.05312
▁판매	-9.0533
▁사실이	-9.05379
▁19	-9.05658
그동안	-9.05707
되지	-9.05838
▁생각이	-9.06204
▁얼마나	-9.0622
▁불법	-9.06482
▁기술	-9.06503
▁들어	-9.06649
▁시즌	-9.06649
▁실제	-9.06748
▁후보자	-9.06802
▁북한이	-9.07038
이란	-9.07097
▁높다	-9.07136
▁가능성을	-9.07573
▁B	-9.07596
▁반응을	-9.07599
▁받아	-9.07656
▁이유를	-9.07694
로부터	-9.0771
이었다	-9.07847
▁통화에서	-9.08082
▁의지를	-9.08147
▁가능한	-9.08452
▁주는	-9.08497
적으로	-9.08529
▁마음을	-9.08781
▁동시에	-9.08958
리	-9.09006
▁대	-9.09022
▁했는데	-9.09225
그러나	-9.09298
▁밖에	-9.09348
▁했지만	-9.09524
에선	-9.09562
A	-9.09702
▁있는지	-9.09728
▁거듭	-9.09792
스	-9.09798
▁부분이	-9.09801
▁없어	-9.09816
▁수사를	-9.09895
▁그동안	-9.09906
했지만	-9.10008
에서는	-9.10054
다만	-9.10073
▁기회가	-9.10074
▁꼬집었다	-9.10287
▁전날	-9.10353
▁다음	-9.10374
▁생각을	-9.10442
화	-9.10511
▁있어서	-9.10541
위	-9.10768
▁사람	-9.10836
▁안보	-9.10869
▁반	-9.10917
▁상태	-9.11053
제가	-9.11126
▁최대한	-9.1113
내가	-9.11218
보다는	-9.11233
▁게임	-9.11296
▁좋다	-9.11337
▁관리	-9.11506
▁우려가	-9.11625
▁인상	-9.11731
▁점에서	-9.1197
▁13	-9.12324
▁하기	-9.12326
▁들었다	-9.12468
▁원장은	-9.12867
▁관한	-9.13142
▁계기가	-9.13183
개월	-9.13342
▁상대로	-9.13447
▁우리는	-9.13449
▁없다는	-9.1345
▁선거	-9.13495
▁나온	-9.13649
▁심	-9.13703
▁달	-9.13708
▁수출	-9.13753
▁의원의	-9.13759
▁여성	-9.1377
▁브랜드	-9.13935
▁경기를	-9.13995
▁세	-9.14017
▁트럼프	-9.14068
간	-9.14134
는데	-9.14141
▁대학	-9.14177
▁달리	-9.14247
▁있어야	-9.14268
▁18	-9.14416
▁그대로	-9.146
▁나가겠다	-9.14661
▁하루	-9.14743
그런	-9.14786
국내	-9.15086
▁16	-9.15201
▁17	-9.15216
▁부동산	-9.15227
당시	-9.15234
▁이유로	-9.1526
됐다	-9.15298
▁거의	-9.15794
▁시간	-9.15822
▁것처럼	-9.1591
▁조직	-9.16036
▁대통령과	-9.16094
▁활동을	-9.161
▁계기로	-9.16168
북한이	-9.16204
▁비용	-9.16247
이제	-9.16264
▁장관	-9.16378
아직	-9.16385
였다	-9.16612
▁"1	-9.16618
▁국민들이	-9.16864
▁학교	-9.16909
이자	-9.17033
▁도발	-9.17038
▁발표	-9.17071
▁언급했다	-9.17205
만원	-9.17311
군	-9.17348
▁요구했다	-9.1735
▁피해자	-9.17437
▁국제	-9.17449
란	-9.17451
시간	-9.17468
▁대해서	-9.17618
▁25	-9.17656
▁자체가	-9.17687
▁후보자는	-9.17876
미국	-9.17924
우	-9.17928
▁사업을	-9.17949
▁개선	-9.1804
▁검찰은	-9.18053
▁언론	-9.18129
▁조언했다	-9.18325
▁차	-9.18391
▁반박했다	-9.18424
▁대화	-9.18455
▁가는	-9.18524
▁24	-9.18587
▁반대	-9.18677
라도	-9.18892
▁강한	-9.19144
▁시간을	-9.19415
▁맞는	-9.1955
하다	-9.19554
▁소속	-9.19637
▁구체적인	-9.19644
▁예상된다	-9.19737
▁말고	-9.19754
▁만들	-9.19806
▁아닌가	-9.19938
▁굉장히	-9.20217
▁야당	-9.20246
▁세월호	-9.20306
▁강력한	-9.20366
▁선수	-9.2044
식	-9.20554
대로	-9.20738
▁금리	-9.20863
▁하면서	-9.21054
▁성과를	-9.21181
▁보도했다	-9.21192
▁분명히	-9.21384
▁제품	-9.21443
▁통합	-9.21487
▁최고의	-9.21514
▁총	-9.21607
▁상황에	-9.21633
▁관심이	-9.21691
▁기업의	-9.21788
▁조사를	-9.21852
명이	-9.21867
▁FTA	-9.21923
▁우선	-9.21952
▁14	-9.22039
▁앞으로도	-9.22055
▁내다봤다	-9.22061
온	-9.22321
▁철저히	-9.22351
▁피해를	-9.22532
▁미래	-9.22748
▁있었던	-9.22766
▁내고	-9.22773
▁의장은	-9.22804
▁위해서	-9.22843
▁때는	-9.22991
▁비롯한	-9.2302
▁경영	-9.23118
우리가	-9.23174
▁해결	-9.23373
법	-9.23492
▁남	-9.23602
▁의미가	-9.23636
와의	-9.23694
▁개인	-9.24002
심	-9.24082
▁전망	-9.24095
▁미국의	-9.24099
▁대표의	-9.24131
▁더불어민주당	-9.24158
정부는	-9.24161
▁대상으로	-9.24192
▁관계	-9.24262
▁전체	-9.24333
▁배치	-9.24384
▁불구하고	-9.24405
현	-9.24429
▁적극적인	-9.24688
▁쉽게	-9.24972
▁제도	-9.24996
▁가치를	-9.25055
▁정권	-9.25137
▁결정을	-9.25176
▁하	-9.25189
▁해명했다	-9.252
▁우리나라	-9.25243
▁경우가	-9.25394
▁국민을	-9.25449
로서	-9.25559
▁못하는	-9.2567
▁부총리는	-9.25738
▁직후	-9.25746
배	-9.25802
▁또는	-9.25823
▁향해	-9.25859
▁최종	-9.25883
▁최고	-9.26138
▁상품	-9.26193
향후	-9.26322
▁나올	-9.26332
▁실적	-9.26369
▁21	-9.26457
▁최고위원은	-9.26673
▁각종	-9.26698
▁의해	-9.26827
하는데	-9.26938
▁발전	-9.27065
▁여야	-9.27146
▁규제	-9.27242
상당히	-9.27318
▁팀장은	-9.27445
▁마지막	-9.27463
▁관련된	-9.27596
▁쉽지	-9.27653
▁있다면	-9.27818
▁현장	-9.27895
▁것이라고	-9.2804
▁이야기를	-9.28109
국	-9.2814
요	-9.28282
호	-9.28315
▁초	-9.28427
▁성	-9.28431
▁책임	-9.28716
▁의미	-9.28842
▁국민들의	-9.2899
▁신뢰를	-9.29023
구	-9.29086
▁내부	-9.29142
▁외국인	-9.29225
▁신규	-9.29242
▁비	-9.29267
되고	-9.2927
▁강화	-9.29285
▁인식	-9.29349
모든	-9.29425
▁대책을	-9.29484
▁내용이	-9.29637
문재인	-9.29644
▁삼성	-9.29749
▁일반	-9.29802
▁보이고	-9.2994
▁있던	-9.30002
▁원내대표	-9.30211
동	-9.30462
▁이는	-9.30492
▁대통령을	-9.30496
▁보는	-9.30557
뿐	-9.30592
▁방침	-9.30596
▁당의	-9.30868
▁소감을	-9.30877
▁결정	-9.3092
▁입장	-9.30973
▁삼성전자	-9.30987
▁아시아	-9.31092
권	-9.31096
▁여부를	-9.3111
▁원하는	-9.3121
정부가	-9.31363
▁오는	-9.31451
유	-9.31588
▁발언을	-9.31712
저는	-9.31747
▁아니고	-9.31788
북한의	-9.31935
▁것인지	-9.3194
▁자리	-9.3195
▁총장은	-9.32018
▁효과가	-9.32105
▁않겠다	-9.32168
단	-9.32186
▁보기	-9.32327
▁배	-9.32399
▁자기	-9.32732
▁탄핵	-9.32837
▁백	-9.33156
▁추	-9.33209
▁어려움을	-9.33473
▁빠른	-9.33532
했는데	-9.33663
▁정보를	-9.33697
▁업무	-9.33699
▁자동차	-9.33741
▁고려해	-9.3375
▁검토	-9.34004
▁소개했다	-9.3409
▁넘어	-9.34436
▁단	-9.34547
▁놓고	-9.34644
▁등은	-9.3468
▁미래를	-9.34783
▁한국의	-9.348
▁대부분	-9.34889
▁안다	-9.34907
▁이러한	-9.34964
▁"3	-9.3497
▁시장에서	-9.35082
▁시장에	-9.35213
▁22	-9.35363
▁"4	-9.35407
▁나왔다	-9.35484
▁매출	-9.35566
▁원칙	-9.35701
▁일은	-9.35956
▁좋지	-9.35964
▁모바일	-9.35977
▁산업	-9.36136
▁시장의	-9.3614
▁결과가	-9.36183
▁도움을	-9.36311
▁나라	-9.3635
하기로	-9.36387
▁범죄	-9.3661
한다는	-9.36627
▁심각한	-9.36672
▁의원도	-9.36692
▁얘기를	-9.37095
▁준	-9.37114
▁글을	-9.37287
북한	-9.37417
▁했고	-9.37647
▁포함한	-9.37665
▁역량을	-9.37666
▁23	-9.37702
▁법	-9.3771
▁꾸준히	-9.37795
▁안철수	-9.37959
▁듣고	-9.38081
▁지속적인	-9.38102
치	-9.3815
▁50	-9.38165
▁있으면	-9.38317
▁발전을	-9.3844
했을	-9.3849
▁드러냈다	-9.38595
▁주문했다	-9.38603
나는	-9.38605
▁은행	-9.38665
▁안전	-9.38781
▁부분에	-9.38885
으로부터	-9.38932
▁국정	-9.38966
▁속에서	-9.39307
▁자신이	-9.39412
▁대북	-9.39439
▁나와	-9.39522
과의	-9.39855
▁경험을	-9.40009
▁지사는	-9.40021
▁받지	-9.40201
▁후보를	-9.40228
강	-9.4023
▁만에	-9.408
▁잘못된	-9.4093
오	-9.40945
▁기대된다	-9.40984
▁찾아	-9.41104
▁와	-9.41206
▁낮은	-9.41217
하여	-9.41289
▁마케팅	-9.41331
▁즉각	-9.41394
하던	-9.41502
▁관련한	-9.41502
▁만든	-9.41631
든	-9.41745
▁이상의	-9.41872
▁보호	-9.41873
▁특정	-9.4193
▁관계를	-9.41933
▁28	-9.41933
▁27	-9.41949
▁총선	-9.41998
▁유엔	-9.42051
▁아주	-9.42254
▁리스크	-9.42288
▁시장을	-9.42313
▁중에	-9.4242
지역	-9.42437
▁공동	-9.42446
▁다소	-9.42586
▁효과를	-9.42605
▁정보	-9.42634
▁현지	-9.42747
▁했던	-9.42754
▁법안	-9.42944
▁방문	-9.43019
▁수석	-9.43118
인지	-9.4315
▁논란이	-9.43343
▁간담회에서	-9.43435
▁과제	-9.43548
▁"2	-9.43834
▁낼	-9.43863
▁한번	-9.43908
▁비난했다	-9.43915
▁보수	-9.43924
▁단계	-9.43993
▁26	-9.4402
▁전국	-9.44116
▁질	-9.44133
▁판단	-9.44283
▁분들이	-9.44291
▁훨씬	-9.44639
이지만	-9.44642
▁실장은	-9.44663
▁복지	-9.44731
▁길을	-9.44752
▁완전히	-9.44791
▁돼야	-9.44798
▁회견에서	-9.44811
▁논의	-9.44811
▁무슨	-9.44845
▁기업이	-9.44924
▁본부장은	-9.44936
소	-9.45101
▁시장이	-9.45193
겠다	-9.45343
▁브리핑을	-9.45453
▁한다고	-9.45499
▁없다고	-9.45552
▁자유한국당	-9.45599
▁김씨는	-9.45613
뿐만	-9.45745
▁법적	-9.45979
▁외교부	-9.46035
▁사과	-9.46104
▁K	-9.46223
▁환경	-9.46261
▁것이라는	-9.46279
▁고위	-9.46309
다른	-9.46345
▁차례	-9.46369
씨의	-9.46545
들	-9.46549
이기	-9.46691
▁낸	-9.46729
▁절대	-9.46786
▁선수들이	-9.46823
▁부분을	-9.46897
▁맞춰	-9.46977
명의	-9.47042
▁유럽	-9.47134
▁누가	-9.47152
▁가능하다	-9.47212
▁업체	-9.4735
▁한미	-9.47414
▁깊은	-9.47542
▁대신	-9.47562
▁대응	-9.47612
▁내에	-9.4762
▁부담을	-9.47637
▁방향으로	-9.47894
▁류	-9.47897
▁진	-9.47957
▁생각하고	-9.48191
▁안에	-9.48199
무	-9.4822
▁모르겠다	-9.48355
▁변화를	-9.48367
▁제품을	-9.48439
▁정부와	-9.48474
▁인터넷	-9.48501
▁대화를	-9.48533
▁사건을	-9.48561
▁회의	-9.48609
임을	-9.48619
▁의사를	-9.48637
번	-9.4872
▁회장이	-9.48761
▁전문	-9.48882
급	-9.48956
▁합의	-9.49079
▁곳이	-9.4922
▁TV	-9.49241
▁부분은	-9.49286
▁자리를	-9.49299
▁행사	-9.49322
▁이전	-9.49368
▁결코	-9.49373
▁총리	-9.49446
▁연구	-9.49553
▁싶은	-9.49578
▁상승	-9.49584
노	-9.49606
▁때까지	-9.49606
▁참	-9.49671
들에게	-9.49706
▁영국	-9.49852
▁묻는	-9.50047
▁지시	-9.50133
▁기반	-9.50151
질	-9.50179
▁관련해서는	-9.50201
▁당장	-9.50304
▁사퇴	-9.50373
▁선	-9.50411
▁모두가	-9.50416
▁논평을	-9.50419
▁자료를	-9.50439
▁지속	-9.50499
▁저	-9.50505
▁위반	-9.50553
▁묻자	-9.50582
▁온라인	-9.50619
▁부분	-9.50684
재	-9.50791
▁수석은	-9.50984
▁국정원	-9.51033
▁시절	-9.51062
▁검사	-9.51099
▁발생한	-9.51202
▁사람은	-9.51231
하	-9.51546
▁항상	-9.51637
▁투자를	-9.51699
▁구	-9.5185
그룹	-9.51902
▁앞에	-9.51916
▁영업	-9.51937
▁갈등	-9.52037
▁절차를	-9.52038
▁외교	-9.52042
이미	-9.52129
▁하게	-9.52257
▁이사장은	-9.52347
▁점이	-9.52351
▁조정	-9.52377
▁혐의	-9.52396
▁국민에게	-9.52407
▁KB	-9.52446
▁그룹	-9.52617
▁웃었다	-9.52663
▁맞아	-9.52742
▁중소기업	-9.5275
▁거쳐	-9.52786
▁김정은	-9.52787
하자	-9.52878
▁이유가	-9.52949
▁말해	-9.52958
▁공개	-9.52959
▁허	-9.53091
▁근거	-9.53146
▁열어	-9.53254
▁측면에서	-9.53312
냐	-9.53344
▁구조	-9.53557
▁에너지	-9.53572
▁권리	-9.53578
▁평가	-9.53636
▁강하게	-9.53684
씨	-9.53714
건	-9.53725
▁주고	-9.53755
실	-9.53756
▁대기업	-9.53813
▁구단	-9.5387
▁실제로	-9.53929
▁증가	-9.53963
▁의혹을	-9.53972
▁IT	-9.54096
일본	-9.54156
▁도입	-9.54224
▁29	-9.54275
▁하자	-9.54299
올	-9.54342
▁분야에서	-9.54354
▁국회의원	-9.54502
▁중국의	-9.54564
▁혐의를	-9.54784
론	-9.54806
▁만한	-9.54874
▁작은	-9.54943
▁사람을	-9.54998
▁금감원	-9.55031
▁과정을	-9.55052
▁있느냐	-9.55059
과거	-9.55067
▁하며	-9.55102
만원을	-9.55166
정부	-9.55291
네	-9.55319
▁조치	-9.55339
▁호소했다	-9.55361
4	-9.55391
▁발사	-9.55396
▁제재	-9.55483
▁성과	-9.55756
▁공사	-9.55799
주년	-9.55952
▁요청했다	-9.56034
▁논의를	-9.5629
▁대형	-9.56388
경제	-9.56392
▁없도록	-9.56395
▁늘	-9.56488
▁드린다	-9.56511
▁행사를	-9.56575
▁전환	-9.5677
▁참석한	-9.56827
▁발생	-9.56912
▁빠르게	-9.56918
▁안된다	-9.56958
▁마음이	-9.5698
▁수준의	-9.56984
▁감독이	-9.57018
▁이어질	-9.57055
▁직원	-9.57134
▁소비자	-9.57138
▁정상화	-9.57164
▁나서	-9.57234
▁부산	-9.57265
▁당국자는	-9.57272
▁집중	-9.57292
으로서	-9.57309
▁자금	-9.5734
▁분야	-9.57353
투자증권	-9.57635
▁살	-9.57677
조원	-9.57747
산	-9.58063
▁정확한	-9.58098
한다면	-9.58158
▁되길	-9.58336
▁총재는	-9.5835
▁출신	-9.58362
라면서	-9.58367
이는	-9.58492
▁자주	-9.58505
▁못해	-9.5856
▁주변	-9.58658
▁후보의	-9.58717
▁기여할	-9.58761
▁목표	-9.59057
▁혜택을	-9.59109
▁몸	-9.59118
▁대한민국의	-9.59195
국민	-9.59227
▁이해	-9.59334
▁위기	-9.5946
▁부담이	-9.59486
조차	-9.59597
▁시스템	-9.59822
▁되어	-9.59933
▁정치를	-9.59967
▁광고	-9.60048
▁노력할	-9.6007
▁뿐만	-9.60114
▁인재	-9.60142
▁성장을	-9.60237
▁담당	-9.60281
▁사례	-9.603
▁없지만	-9.60329
▁인기	-9.60381
▁재정	-9.60399
▁남북	-9.60434
하라	-9.6045
▁아무	-9.60548
▁약속했다	-9.60624
▁마무리	-9.60637
▁사	-9.60671
▁국민과	-9.60859
하려는	-9.6094
▁봤다	-9.60951
새	-9.60953
▁않을까	-9.60959
▁다할	-9.61018
▁교수	-9.6102
▁하다	-9.61043
▁나는	-9.6105
▁참석	-9.61068
시장	-9.61071
▁활동	-9.61081
▁방법을	-9.6114
▁사용	-9.61203
▁시대	-9.6134
▁힘든	-9.61447
▁지금까지	-9.61544
또	-9.61613
▁기쁘다	-9.61663
▁거래	-9.61675
▁세금	-9.61692
모	-9.61803
금융	-9.61862
▁아	-9.61943
▁전략	-9.62062
함으로써	-9.62068
▁광주	-9.62072
▁민간	-9.62119
억원을	-9.62215
▁능력을	-9.62232
▁많아	-9.62297
▁보도	-9.62347
▁40	-9.62377
▁못할	-9.62446
▁냈다	-9.62503
▁의무	-9.62512
▁참석해	-9.62634
▁갖춘	-9.62635
마다	-9.62659
▁부담	-9.62785
▁새정치민주연합	-9.628
▁의한	-9.62949
▁거	-9.63098
▁태도	-9.63123
▁개혁	-9.63138
▁혁신	-9.63328
▁것이고	-9.63332
되면	-9.63336
명을	-9.63384
내년	-9.63489
▁제공할	-9.63529
▁기	-9.63535
▁돈	-9.6367
▁민	-9.63841
▁발표했다	-9.63898
▁시기	-9.64124
석	-9.64125
▁발언	-9.64236
▁나오는	-9.64262
홍	-9.6429
▁젊은	-9.64328
기업	-9.64328
▁기본	-9.64339
▁끝까지	-9.6437
▁학생	-9.64432
▁의견이	-9.64441
▁방식으로	-9.64553
▁대회	-9.64666
▁찾는	-9.64802
▁마음	-9.64832
▁말씀을	-9.64862
▁발표한	-9.64889
▁생산	-9.64925
▁장관이	-9.64927
▁만들고	-9.64951
▁지금은	-9.6496
사업	-9.6499
반	-9.65036
▁건설	-9.65065
▁미리	-9.65068
▁어려울	-9.65086
▁적은	-9.65121
▁자체	-9.65139
▁가족	-9.65171
▁적	-9.65192
▁대출	-9.65224
▁범행을	-9.65278
▁처리	-9.65293
▁단순	-9.65337
▁부사장은	-9.65412
▁검찰이	-9.65538
▁되도록	-9.65542
▁인사를	-9.65563
▁바른정당	-9.65705
▁합의를	-9.65735
▁고용	-9.65869
▁힘이	-9.65871
지는	-9.65948
보	-9.66018
별	-9.66074
▁비롯해	-9.66087
▁간담회를	-9.66093
▁확인	-9.66174
▁공격	-9.66206
▁스포츠	-9.66224
▁다르다	-9.66232
▁현실	-9.6629
이라도	-9.66341
▁진술했다	-9.66688
▁아무런	-9.66827
러	-9.66845
▁북한에	-9.66998
▁사는	-9.67052
▁지적에	-9.67329
경	-9.67344
▁이명박	-9.67367
▁새롭게	-9.67419
▁논란	-9.67455
▁명	-9.6747
▁만들기	-9.67672
만약	-9.67749
▁감독	-9.67787
▁결정했다	-9.67847
▁이익을	-9.67909
▁출시	-9.67943
▁활성화	-9.67988
준	-9.67989
글로벌	-9.68083
▁상태에서	-9.68407
▁열	-9.68432
▁위안부	-9.68554
▁분	-9.68628
시킬	-9.68779
▁수요가	-9.68784
▁의미를	-9.68843
▁증시	-9.68953
▁우려했다	-9.6897
팀	-9.68983
▁특검	-9.68997
▁알려졌다	-9.69089
경기	-9.69149
▁경고했다	-9.69237
▁홍보	-9.69248
▁속	-9.69314
국가	-9.69332
▁구성	-9.69474
▁이유는	-9.69571
▁공무원	-9.69632
어제	-9.69744
▁맞지	-9.698
▁봐야	-9.69814
▁새정치연합	-9.69932
▁생활	-9.70033
▁보이는	-9.70037
▁주장을	-9.70058
▁주민	-9.70062
▁저는	-9.70111
▁깊이	-9.70175
▁평가를	-9.70216
교육	-9.70456
▁선발	-9.70511
저	-9.7055
▁방송	-9.70612
▁생각했다	-9.7068
▁문제로	-9.7075
▁당이	-9.70872
▁때마다	-9.70965
각	-9.7101
▁앞에서	-9.71062
▁나설	-9.71083
▁타	-9.71112
▁사전	-9.7113
▁어	-9.7117
▁계획을	-9.71179
▁협의	-9.712
▁대표를	-9.71203
▁협상	-9.71222
▁원내대변인은	-9.71445
5	-9.71484
▁서울시	-9.71518
영	-9.71613
▁동의	-9.71645
▁창업	-9.71699
청와대	-9.71713
▁잘못	-9.71767
▁추진할	-9.71787
▁대규모	-9.7183
▁여지	-9.71831
▁서울대	-9.71878
▁부회장은	-9.71949
연	-9.71973
▁구속	-9.72018
▁검증	-9.72062
▁선을	-9.72169
▁역사	-9.72191
어떤	-9.72255
▁소비	-9.72272
▁난	-9.7228
▁기관	-9.72369
▁법원	-9.72392
▁시스템을	-9.72416
▁공급	-9.72427
▁일정	-9.72443
▁의혹	-9.72461
사드	-9.72499
▁감사	-9.72552
▁모아	-9.72654
▁기술을	-9.72675
▁상무는	-9.72701
▁청년	-9.72739
▁제안했다	-9.728
▁오래	-9.72823
▁경쟁	-9.72985
트	-9.73006
▁모	-9.73009
▁경제적	-9.73083
▁긍정적인	-9.73138
▁든다	-9.73268
▁인수	-9.73277
▁있으니	-9.73288
▁나타냈다	-9.73303
▁토로했다	-9.73379
▁희망을	-9.73411
▁국민들에게	-9.73428
▁마음으로	-9.73472
▁포함해	-9.73618
▁북핵	-9.73661
세월호	-9.7369
▁리	-9.73693
▁개헌	-9.73888
▁다해	-9.73914
▁러시아	-9.73958
▁대상	-9.74001
▁노력이	-9.74018
▁연구위원은	-9.74036
▁대로	-9.74065
▁진정한	-9.74069
▁현장에서	-9.74097
▁가치	-9.74137
운	-9.74142
라면	-9.74221
▁변호인은	-9.74238
▁보이지	-9.74251
하기도	-9.74255
▁손을	-9.74311
▁길	-9.74347
▁결정할	-9.74389
▁배경	-9.74404
▁차량	-9.74406
▁조속히	-9.74428
▁일자리를	-9.74434
▁상대적으로	-9.74455
▁상당한	-9.74465
▁표현	-9.74496
▁매각	-9.7452
▁생각하는	-9.74557
▁협의를	-9.74565
▁부족한	-9.74647
▁이야기	-9.74732
▁충분한	-9.74734
▁강화해	-9.74846
마	-9.7488
▁교과서	-9.74938
▁어떠한	-9.74999
▁특별한	-9.75
▁롯데	-9.7501
▁시작	-9.75049
▁신고	-9.75068
▁진행할	-9.75214
▁편	-9.75221
▁행위	-9.75242
▁차이가	-9.75286
▁절차	-9.75328
새로운	-9.7533
▁뜻	-9.75385
▁건강	-9.75572
▁이제는	-9.75671
▁비중	-9.75708
▁남은	-9.75765
▁집회	-9.75787
▁이용해	-9.75798
▁재판	-9.75869
▁2015	-9.75903
▁사안	-9.75905
▁회의에서	-9.75925
▁발생할	-9.75999
▁피해가	-9.76034
었다	-9.7605
▁변화가	-9.76097
천	-9.76104
▁대책	-9.7617
▁입을	-9.76242
▁철저한	-9.76337
▁재차	-9.76345
관	-9.76404
▁1000	-9.76423
▁실질적인	-9.76468
양	-9.76607
▁지지를	-9.76662
많은	-9.76678
▁사이에	-9.76723
▁책임이	-9.76798
관리	-9.76851
▁맡은	-9.76852
▁노력	-9.76954
▁경제가	-9.77023
▁임기	-9.77036
▁곧	-9.77112
▁행정	-9.77124
▁우려	-9.77158
▁이용	-9.77199
▁내에서	-9.77236
▁경찰은	-9.77239
▁등에서	-9.7743
▁대안	-9.77454
▁준비를	-9.77467
초	-9.77502
▁내용	-9.77578
▁메시지를	-9.77641
▁이뤄질	-9.77654
지금은	-9.77832
▁대표와	-9.77909
▁와서	-9.77944
▁연	-9.78021
▁학생들이	-9.78026
일부	-9.78049
▁통일부	-9.78055
▁계약	-9.78068
▁분위기를	-9.78118
▁많았다	-9.78118
▁미치는	-9.78118
▁가서	-9.78122
▁징계	-9.78132
▁말할	-9.78133
세계	-9.78136
기를	-9.78183
▁요구	-9.78256
▁브리핑에서	-9.78287
▁논의가	-9.78289
▁책	-9.78484
▁이사는	-9.78525
▁설치	-9.78579
팀장은	-9.7859
▁나선	-9.78634
년에	-9.78683
▁달러	-9.78747
▁차원의	-9.78801
▁당내	-9.78918
다면	-9.79075
지금까지	-9.79125
▁재	-9.79133
▁프로그램을	-9.79398
▁독일	-9.79416
▁여당	-9.79477
▁우려를	-9.79535
일까지	-9.79567
▁식으로	-9.79674
내일	-9.79706
▁끝난	-9.79742
▁넘는	-9.79845
▁국회가	-9.79857
▁정당	-9.79913
▁그래서	-9.79916
난	-9.79946
▁대통령에게	-9.79992
▁평균	-9.80021
7	-9.80062
금	-9.80065
▁않느냐	-9.80092
▁만들겠다	-9.80097
▁자리에	-9.802
▁2012	-9.80282
타	-9.80441
▁원전	-9.80501
▁분이	-9.80559
▁회복	-9.80753
▁안정적인	-9.80763
▁중심의	-9.8078
▁국민적	-9.8078
▁입장에서	-9.80799
▁교류	-9.80809
▁전문가	-9.80865
▁주식	-9.80948
▁분석	-9.80996
▁요구하는	-9.81022
▁취임	-9.8104
▁경선	-9.81095
일부터	-9.81106
년부터	-9.81112
민	-9.81144
▁있었지만	-9.81149
▁나라를	-9.81198
▁불	-9.81222
▁정상	-9.81259
▁자산	-9.81345
▁시행	-9.81438
▁2014	-9.81448
▁차관은	-9.81469
관련	-9.8147
▁판사는	-9.81494
▁말하는	-9.817
▁수준으로	-9.81725
▁말한다	-9.8175
▁선수가	-9.8181
▁상품을	-9.81812
▁주장	-9.81815
▁헌재	-9.81851
▁진단했다	-9.81886
들과	-9.81945
▁측이	-9.82086
▁간의	-9.82196
▁즐길	-9.82214
드	-9.82255
▁맞다	-9.82285
▁목표로	-9.82347
▁진심으로	-9.82433
▁타격	-9.82445
30	-9.82454
▁전면	-9.82501
▁기회	-9.82608
▁때도	-9.82625
▁성공	-9.82673
▁발	-9.8273
▁CEO	-9.82788
▁추세	-9.82791
▁질문에는	-9.82792
▁더불어	-9.82796
▁진출	-9.82819
대통령	-9.82918
▁관계가	-9.83009
▁일단	-9.83036
지원	-9.83041
▁확인했다	-9.83093
북한은	-9.83131
했기	-9.83186
▁강화하고	-9.83209
▁개정	-9.83236
▁안전을	-9.83252
▁심사	-9.83276
▁번째	-9.83358
▁겪고	-9.83398
▁속에	-9.83492
그런데	-9.83617
▁걱정	-9.83679
▁범행	-9.83692
▁영화	-9.8375
▁나온다	-9.83813
▁다짐했다	-9.83825
▁나머지	-9.83927
▁투자자	-9.83968
▁약속을	-9.84055
▁토대로	-9.84156
▁설	-9.84264
▁걸쳐	-9.84265
▁듯	-9.84288
▁이씨는	-9.8429
6	-9.84355
▁최선의	-9.84376
▁이유	-9.84399
만큼	-9.84525
▁부문	-9.84567
▁점에	-9.846
▁지역의	-9.84611
▁간사	-9.84661
▁조성	-9.84689
▁삶을	-9.84698
▁자신감을	-9.8479
▁꿈을	-9.84824
▁전화	-9.84861
▁것인가	-9.84893
돼야	-9.84935
▁훈련	-9.8495
K	-9.84966
▁조사에서	-9.84996
▁변화	-9.85048
청	-9.85113
▁채용	-9.85173
▁관심과	-9.85221
줄	-9.85224
▁시기에	-9.85249
▁판단을	-9.85257
▁얘기	-9.85266
되도록	-9.85322
▁시도	-9.85347
▁페이스북	-9.85375
▁목표를	-9.85403
▁긴급	-9.85486
▁경제의	-9.85508
▁내렸다	-9.85659
▁말로	-9.85859
▁노조	-9.86034
해당	-9.8604
▁기업들이	-9.86064
▁믿고	-9.86074
▁된다는	-9.86085
▁확대해	-9.86088
대통령이	-9.86162
▁성공적	-9.86195
긴	-9.86205
▁요구한	-9.86237
▁활용해	-9.86554
▁의견	-9.86615
▁70	-9.8663
▁머리	-9.86643
▁업무를	-9.86644
산업	-9.86653
▁제도를	-9.86664
국민의	-9.86687
▁촉구한다	-9.86708
▁지시했다	-9.8675
▁여부에	-9.86765
▁통해서	-9.86773
▁폐지	-9.8679
▁2013	-9.8684
▁프로젝트	-9.86847
남	-9.8688
▁기업들	-9.8688
방	-9.86986
▁제공	-9.86987
▁당연히	-9.87008
▁공천	-9.87063
▁"5	-9.87102
▁상호	-9.87104
▁부	-9.87109
▁전화를	-9.87173
▁기대했다	-9.87198
▁연장	-9.87201
▁한다면	-9.87255
▁하더라도	-9.87288
▁방법	-9.87337
▁명예	-9.87518
▁여의도	-9.87544
▁가능성도	-9.87568
▁전쟁	-9.8759
최	-9.87693
▁혐의로	-9.8771
기존	-9.87725
그래서	-9.87751
▁보고서	-9.87766
▁서울중앙지법	-9.87804
▁아들	-9.87869
▁취업	-9.88025
▁인권	-9.88073
되면서	-9.88183
등	-9.88191
▁가능성에	-9.88253
▁주가	-9.88326
▁검찰에	-9.88395
자가	-9.88453
대학	-9.88453
▁법률	-9.88472
▁제공하는	-9.88504
▁기준	-9.88513
▁청장은	-9.88534
▁임금	-9.88573
▁들고	-9.88623
▁시작했다	-9.88629
▁디자인	-9.88657
이번에	-9.88692
▁나오고	-9.88729
▁들	-9.88779
▁어려움이	-9.88805
▁마련	-9.88869
▁위기를	-9.88928
▁대구	-9.89007
▁창출	-9.89026
▁각오를	-9.89062
▁심리	-9.89085
▁유통	-9.89088
▁훈련을	-9.89108
▁우수한	-9.89128
▁요구를	-9.89189
▁시점	-9.89224
▁가능성은	-9.89232
▁문제와	-9.89264
▁31	-9.89327
▁내일	-9.89353
▁신임	-9.89428
년까지	-9.89465
▁관계자	-9.89466
▁추가로	-9.89501
▁명의	-9.89531
▁생각해	-9.89538
▁가격이	-9.89713
▁사건이	-9.89737
▁100%	-9.89745
▁감소	-9.8976
▁장기	-9.89858
▁가까운	-9.89872
▁중단	-9.89885
▁계약을	-9.89908
▁선정	-9.89934
▁수요	-9.89936
▁검찰의	-9.8994
▁손해	-9.90008
했으며	-9.90008
▁아는	-9.90025
▁대한민국을	-9.90125
▁구체적으로	-9.90153
▁등과	-9.90153
▁성명을	-9.90205
▁마치	-9.90248
년이	-9.90299
발	-9.90309
▁그냥	-9.90312
▁과정	-9.90337
정책	-9.90452
▁확보	-9.90463
▁참여한	-9.90495
▁무	-9.90591
▁통일	-9.90596
▁예상했다	-9.90659
▁노력하고	-9.90684
▁아파트	-9.90687
▁평화	-9.90758
▁추진해	-9.90773
▁주택	-9.908
▁연대	-9.90932
▁소득	-9.90994
월에	-9.91106
▁경기가	-9.91158
▁미칠	-9.91299
밖에	-9.91301
▁추천	-9.91353
▁교체	-9.91509
▁미국과	-9.91523
▁SNS	-9.91533
▁보낸	-9.91535
▁신경	-9.9155
▁나가는	-9.91579
▁최소한	-9.91601
▁형태	-9.91622
▁보여	-9.91773
▁모르는	-9.9178
▁것이라	-9.91907
▁천	-9.9193
▁심판	-9.91943
▁소장은	-9.9195
▁점차	-9.91963
▁기능을	-9.92037
▁국가의	-9.92145
▁발전에	-9.92181
▁자	-9.92254
▁과장은	-9.92464
▁그에	-9.92647
▁기조	-9.92657
▁역사를	-9.92696
▁관심	-9.92755
▁스마트폰	-9.92791
▁지분	-9.92835
▁노무현	-9.9298
▁결의	-9.92992
▁검토하고	-9.93005
▁목적	-9.9301
▁소식을	-9.93029
▁나가야	-9.93118
▁경험이	-9.93212
▁완화	-9.93246
▁당을	-9.93265
▁박지원	-9.93298
월부터	-9.933
▁구조조정	-9.93329
루	-9.93359
▁매년	-9.93363
▁나아가	-9.934
▁전부	-9.93406
▁메르스	-9.93548
▁선물	-9.93553
▁더민주	-9.93727
▁의원들이	-9.93728
▁노력해	-9.93767
▁개	-9.93808
▁보내	-9.93827
▁전해졌다	-9.93874
▁내용은	-9.93902
▁무엇보다	-9.93962
학교	-9.93973
▁못한다	-9.94045
▁모습	-9.94111
▁지역에	-9.94212
▁갑자기	-9.94219
▁가계부채	-9.94232
바	-9.94268
20	-9.94297
▁출마	-9.94339
▁확실히	-9.94351
▁정부에	-9.9439
▁둔	-9.94541
▁평소	-9.94551
▁있음을	-9.9456
▁확산	-9.94615
▁전략적	-9.94625
▁60	-9.94739
▁민주통합당	-9.94796
▁한국에	-9.94813
▁시민	-9.94876
▁통과	-9.9497
▁보	-9.95006
▁것이냐	-9.95006
▁평화와	-9.95012
▁새로	-9.95022
학년	-9.95165
▁무조건	-9.95192
▁인천	-9.95222
▁힘들다	-9.95231
▁같아	-9.95255
▁환자	-9.95306
▁것이며	-9.95393
▁단일화	-9.95439
▁그었다	-9.95446
▁혁신을	-9.95476
▁지도부	-9.95485
▁비슷한	-9.95503
▁인하	-9.95513
▁해소	-9.95655
▁경기에	-9.95703
▁지지	-9.95753
▁안보리	-9.95768
하려면	-9.95788
위원회	-9.95923
▁소중한	-9.95997
▁정책이	-9.96042
▁금융위	-9.96051
▁대상이	-9.96082
정부의	-9.96111
▁적절한	-9.9612
▁인근	-9.96135
▁합리적인	-9.96152
▁관광	-9.96163
▁오랜	-9.9617
▁해결할	-9.96177
▁외부	-9.96204
이러한	-9.96345
▁고객의	-9.9635
▁마친	-9.96367
▁인프라	-9.96379
▁수익을	-9.96441
▁단장은	-9.96503
▁종합	-9.96507
▁전략을	-9.9652
▁의지가	-9.96521
▁2000	-9.96533
군은	-9.96578
▁콘텐츠	-9.96641
▁하락	-9.96685
기도	-9.96856
▁회의를	-9.96868
▁근본적	-9.96883
결국	-9.96903
▁지급	-9.96964
▁이익	-9.97037
▁따뜻한	-9.97067
▁물	-9.97126
▁상대	-9.97138
입니다	-9.97192
▁판결	-9.97192
▁확인할	-9.97196
까	-9.97259
▁느낄	-9.97361
▁진실을	-9.97381
정치	-9.97389
▁긴밀	-9.9739
점	-9.97415
▁따로	-9.97418
▁밝혀	-9.97425
▁유감	-9.97593
▁쓸	-9.97601
▁언제	-9.97613
파	-9.97619
▁국회에	-9.97636
▁바라는	-9.97745
▁주장하는	-9.97785
▁기준을	-9.9783
▁않게	-9.97851
▁즉시	-9.97852
▁이번에	-9.97862
이라면서도	-9.97905
▁경찰에	-9.97924
▁김무성	-9.97971
TV	-9.98004
▁작업을	-9.98069
▁제일	-9.98158
▁비즈니스	-9.98172
▁아이	-9.98233
승	-9.98264
물	-9.98264
▁소송을	-9.98267
▁시설	-9.98273
▁비리	-9.9831
▁보여주는	-9.98383
▁의혹이	-9.98397
▁균형	-9.9842
▁얻을	-9.98484
▁선고	-9.98488
임	-9.98489
종	-9.98494
▁체제	-9.98514
▁설립	-9.98537
▁구매	-9.9854
▁경기도	-9.98554
▁사전에	-9.98617
▁분위기가	-9.98634
▁아니지만	-9.98843
우리나라	-9.98847
▁때가	-9.98865
▁비정규직	-9.98866
▁주민들	-9.98894
▁점은	-9.98914
▁이벤트를	-9.98929
▁방법이	-9.98997
▁비중이	-9.99013
▁최순실	-9.99042
하길	-9.99059
▁펀드	-9.99116
▁초기	-9.99123
▁개선을	-9.99142
▁KT	-9.99153
▁차별화된	-9.99163
▁정의당	-9.99296
들도	-9.993
▁추진하고	-9.99328
▁과연	-9.99329
▁보안	-9.99463
시켜	-9.99488
▁흐름	-9.99496
▁유지	-9.99549
▁있었고	-9.99578
▁일축했다	-9.99582
▁충격	-9.9962
왜	-9.99689
▁-	-9.99718
▁하나로	-9.99719
▁품질	-9.99742
▁사건에	-9.99766
▁조기	-9.99799
▁개성공단	-9.99836
▁이끌어	-9.99846
▁그의	-9.9987
▁내용의	-10.0002
▁상당	-10.0007
본	-10.0013
▁만들어야	-10.0014
▁대폭	-10.002
▁밤	-10.0021
▁원내대표가	-10.0025
▁보지	-10.0028
코	-10.0035
▁되기	-10.0051
▁강력히	-10.0059
▁부인했다	-10.0064
▁집행	-10.0067
▁이뤄지지	-10.0072
▁보상	-10.0073
▁각각	-10.0076
▁맞게	-10.0081
▁지적	-10.0085
▁환경을	-10.0088
▁위협	-10.0088
▁페이스북에	-10.0092
계	-10.0093
▁공장	-10.0094
▁기반으로	-10.0099
▁가고	-10.0103
▁"10	-10.0104
▁축소	-10.0106
▁가질	-10.0111
▁보도자료를	-10.0113
▁시민들	-10.0116
▁높이	-10.012
▁여	-10.0127
▁인력	-10.0128
▁기준으로	-10.0131
▁하반기	-10.0134
만으로	-10.0137
위를	-10.0137
▁희망	-10.0138
▁돈이	-10.0144
▁답	-10.0148
▁떠나	-10.0148
▁추진하겠다	-10.0153
▁영장	-10.0155
▁부장은	-10.0162
▁그간	-10.0168
▁수가	-10.017
▁이뤄진	-10.0172
▁예정이다	-10.0176
▁유승민	-10.0176
▁길이	-10.0177
권을	-10.0177
▁수석대변인은	-10.0181
D	-10.0181
별로	-10.0186
으면	-10.0186
▁위	-10.0191
▁변호사	-10.0191
▁요소	-10.0191
▁변경	-10.0193
▁수익성	-10.0194
▁성장할	-10.0194
▁요구에	-10.0198
▁방향을	-10.0198
▁익명	-10.0201
▁사상	-10.0203
▁개정안	-10.0203
▁교육을	-10.0205
▁씨는	-10.022
▁높이는	-10.0221
▁주로	-10.0224
▁자신을	-10.0226
업체	-10.0227
▁군사적	-10.0233
▁최초	-10.0239
▁어제	-10.0242
B	-10.0243
▁전문성	-10.0244
▁결과에	-10.0245
▁대응할	-10.0249
▁정책에	-10.0254
하겠다는	-10.0261
투자	-10.0263
학	-10.0266
검찰	-10.0269
▁MBC	-10.0277
레	-10.028
▁의혹에	-10.0281
후	-10.0282
거	-10.0282
▁받게	-10.0283
▁상	-10.0292
▁겸	-10.0294
▁있으나	-10.0296
▁올바른	-10.0298
▁영업이익	-10.03
▁합의가	-10.0301
였던	-10.0312
▁잡고	-10.0316
▁정상회담	-10.0321
▁출범	-10.0323
▁얘기가	-10.0324
된다	-10.0326
▁말하며	-10.0328
▁가야	-10.0328
▁증거	-10.033
센터	-10.0337
▁영향이	-10.0337
없이	-10.0337
▁반문했다	-10.0341
▁단체	-10.0359
▁믿는다	-10.036
▁프로그램	-10.0364
▁벗어나	-10.0365
되어	-10.0371
▁행위를	-10.0374
▁10%	-10.0375
▁시험	-10.0376
▁제고	-10.0377
▁않나	-10.0386
▁근무	-10.039
▁법무부	-10.0391
▁필요성을	-10.0396
▁시일	-10.0396
▁측면이	-10.0396
▁생각하지	-10.0399
▁기대	-10.0399
▁불과하다	-10.0406
▁캠프	-10.0411
▁정도의	-10.0413
국회	-10.0419
▁모른다	-10.042
▁진술을	-10.042
▁도시	-10.042
▁강화할	-10.0425
▁증권사	-10.0427
했는지	-10.0427
▁정확히	-10.0431
문화	-10.0433
▁C	-10.0443
▁늘고	-10.0443
▁맞춤형	-10.0447
▁아끼지	-10.0448
▁야당이	-10.0449
▁아니면	-10.0451
▁포부를	-10.0459
▁공을	-10.0464
▁전력	-10.0474
▁공정한	-10.0476
▁사무총장은	-10.0482
▁답변을	-10.049
▁직원들	-10.0495
▁육성	-10.0522
▁이행	-10.0522
▁대표이사는	-10.0533
▁200	-10.0535
▁위험	-10.0536
▁진행된	-10.0536
▁대변인	-10.0539
▁병원	-10.0541
▁북한은	-10.0548
▁느낀다	-10.0549
▁사업에	-10.055
▁진행하고	-10.0559
▁수도권	-10.0567
▁아베	-10.0569
▁신뢰	-10.0572
▁쪽으로	-10.0572
▁기획재정부	-10.0574
▁말라	-10.0576
▁물었다	-10.0578
▁개혁을	-10.0582
▁않지만	-10.0583
▁라디오	-10.0589
▁집	-10.0595
▁혼란	-10.0596
▁처음으로	-10.0598
▁외	-10.0604
▁분열	-10.0604
▁중대한	-10.0609
윤	-10.061
▁임명	-10.061
▁사고가	-10.0616
▁공연	-10.0617
▁사람의	-10.0626
▁협상을	-10.0627
▁한국과	-10.0627
▁안정	-10.0628
▁고민	-10.0633
▁긴장	-10.0634
▁지원할	-10.0635
▁않겠느냐	-10.0639
▁제출	-10.0642
▁시대를	-10.0646
▁사이	-10.0648
▁수사에	-10.0653
▁순	-10.0655
▁행장은	-10.066
▁되겠다	-10.0671
▁삶의	-10.0671
디	-10.0672
▁당분간	-10.068
▁기록	-10.0681
▁아니냐는	-10.0691
사실	-10.0695
▁노동	-10.0697
▁있을지	-10.0698
▁민주주의	-10.0703
▁마련해	-10.0704
▁정신을	-10.0705
▁이들	-10.0715
▁카드	-10.0735
▁올린	-10.0738
니까	-10.0742
▁사례가	-10.075
▁피	-10.0757
▁개편	-10.0758
▁자료	-10.0758
▁제작	-10.0761
▁능력이	-10.0763
▁오해	-10.0764
양은	-10.0769
살	-10.0775
▁제한	-10.0778
▁운용	-10.0778
▁쓰는	-10.0782
▁주장에	-10.0791
▁남북관계	-10.0795
▁필요	-10.0797
▁연락	-10.08
8	-10.0807
▁수사가	-10.0812
G	-10.0814
▁실현	-10.0817
▁채권	-10.0823
카	-10.0826
▁출연해	-10.0826
▁때보다	-10.0832
▁정치권	-10.0834
▁외에	-10.0834
▁나오지	-10.0835
▁목적으로	-10.0835
▁기획	-10.0836
▁주기	-10.0837
마저	-10.0839
▁마련했다	-10.0841
▁변	-10.0842
▁그러자	-10.0843
▁대비해	-10.0846
▁역할이	-10.0848
▁위원은	-10.0852
▁사기	-10.0856
▁축구	-10.0863
해외	-10.0873
▁언급한	-10.0876
▁감안해	-10.0879
▁한국당	-10.0882
▁막기	-10.0888
▁할지	-10.0894
▁얼마	-10.0906
▁내는	-10.0906
▁경제를	-10.0909
▁고통을	-10.091
▁한나라당	-10.091
▁결론을	-10.0912
▁민생	-10.0916
▁내린	-10.0918
▁호남	-10.0924
▁모습이	-10.0926
▁열리는	-10.0929
▁승인	-10.0932
▁곳	-10.0934
▁점점	-10.0934
서울	-10.0935
▁과정에	-10.0945
▁선임	-10.0952
▁그렇지	-10.0952
▁보험	-10.0953
▁부실	-10.0958
▁소통	-10.0958
▁측에	-10.096
▁통화	-10.0963
▁위원장이	-10.0966
공	-10.0966
▁되기를	-10.0969
이든	-10.0969
▁관해	-10.0973
판	-10.0975
▁여부	-10.0976
▁행동을	-10.0976
백	-10.0979
▁대표팀	-10.098
교	-10.0985
▁적용	-10.0985
▁금융권	-10.0986
좋은	-10.0987
▁않았고	-10.0998
▁주의	-10.0998
',	-10.1002
▁산	-10.1012
▁스마트	-10.1012
▁특별	-10.1012
▁중심	-10.1014
▁예상	-10.1015
▁있었는데	-10.1023
▁높일	-10.1027
조사	-10.1028
▁보냈다	-10.103
▁청구	-10.1035
▁주지	-10.1039
▁동북아	-10.1039
▁두산	-10.104
▁운영하는	-10.105
▁G	-10.1051
▁분위기	-10.1052
S	-10.1055
▁야당의	-10.1063
▁순간	-10.1064
▁방안	-10.1068
황	-10.107
이었던	-10.1076
▁사망	-10.1078
▁사태	-10.1079
▁사회의	-10.1083
▁부정적인	-10.1083
나갈	-10.1089
▁부족	-10.1096
갈	-10.1096
▁의원을	-10.1101
에만	-10.1106
▁당초	-10.1108
▁모여	-10.1109
층	-10.1111
년을	-10.1114
▁높이고	-10.1121
전자	-10.1126
▁연속	-10.1136
▁틀	-10.114
▁부정적	-10.1142
▁교육부	-10.1144
▁정권의	-10.1147
▁홍준표	-10.1148
불	-10.1149
▁늘어날	-10.1154
티	-10.1156
됐고	-10.1158
▁안전한	-10.1162
▁금	-10.1174
▁수입	-10.1175
▁소리	-10.1177
▁이름을	-10.1181
▁귀	-10.1185
▁50%	-10.1185
▁남아	-10.1188
여러	-10.1191
▁협조를	-10.12
됐던	-10.1201
곤	-10.1202
▁새누리당이	-10.1205
▁최씨	-10.1206
▁보면서	-10.1208
▁둘	-10.1208
설	-10.1217
▁일본의	-10.1218
▁승리를	-10.1219
창	-10.1222
했습니다	-10.1223
▁지키는	-10.1225
포	-10.1237
▁해달라	-10.124
▁그런데	-10.1243
▁지원하는	-10.1243
▁와의	-10.1255
▁긍정적	-10.1262
▁썼다	-10.1265
오는	-10.1266
▁사건의	-10.1268
▁알게	-10.1275
▁민심	-10.1287
▁방식	-10.129
▁이유에	-10.1292
▁제시했다	-10.1295
있는	-10.1298
▁가능할	-10.1299
▁본인이	-10.1301
▁쓴	-10.1302
▁만들었다	-10.1302
▁테러	-10.1305
▁무역	-10.1308
▁일정을	-10.1315
▁끝에	-10.132
▁원칙에	-10.1322
▁크지	-10.1322
병	-10.1323
▁분야의	-10.1324
▁연간	-10.1326
▁인정	-10.1329
▁이뤄져야	-10.1335
▁준비하고	-10.134
▁구축	-10.135
▁방문해	-10.1353
▁한층	-10.1353
▁참여하는	-10.1373
▁한계가	-10.1378
순	-10.1379
▁기대하고	-10.1383
▁사회에	-10.1383
▁말도	-10.1387
▁기업에	-10.139
서비스	-10.1393
▁부처	-10.1396
▁친구	-10.1406
▁회사의	-10.1408
요즘	-10.1414
▁미국이	-10.1414
▁줬다	-10.1416
▁게임을	-10.1421
▁않았지만	-10.1427
▁반대하는	-10.143
▁자세로	-10.143
과장은	-10.1434
▁부회장	-10.1435
▁위해선	-10.1439
▁추진하는	-10.1442
▁현장에	-10.1449
류	-10.1449
▁약속	-10.1457
▁마련할	-10.1467
▁활용	-10.1469
▁개최	-10.1471
▁CJ	-10.1472
▁달성	-10.1474
▁범위	-10.1477
회사	-10.1479
▁지위	-10.1481
▁것보다	-10.1485
▁2017	-10.1498
▁전부터	-10.1498
▁뭐	-10.1499
▁영어	-10.1502
▁사건은	-10.1502
하려고	-10.1502
업계	-10.1506
▁청와대에서	-10.1508
▁확인됐다	-10.1515
▁마	-10.1515
▁변화에	-10.1515
했으나	-10.1515
▁발생하지	-10.1516
▁이동	-10.1518
▁선택	-10.1522
▁나를	-10.1523
씨에게	-10.1523
▁말씀	-10.1525
▁활용할	-10.1533
▁방법으로	-10.1536
▁국제사회의	-10.1542
▁질문을	-10.1542
열	-10.1546
▁부상	-10.1548
▁물가	-10.1549
▁계획이다	-10.1554
▁고객들이	-10.156
▁판시했다	-10.1564
▁유치	-10.1565
▁징역	-10.1569
▁의료	-10.1575
▁강도	-10.1575
▁일에	-10.1578
코리아	-10.158
▁혼자	-10.1583
▁의사	-10.1584
▁트위터	-10.159
▁기상청	-10.1599
이렇게	-10.1599
▁기여	-10.16
▁관점에서	-10.16
▁최고위원	-10.1601
▁최초로	-10.1602
▁가치가	-10.1603
▁출연	-10.1606
▁이후에	-10.1606
시설	-10.1608
▁아직도	-10.161
▁만전	-10.1613
▁않기	-10.1619
▁방	-10.1625
즈	-10.1626
스포츠	-10.1626
▁허위	-10.163
▁데다	-10.1631
▁있기를	-10.1633
씨를	-10.1639
▁디지털	-10.1639
느냐	-10.164
▁고려할	-10.1643
▁찾을	-10.1644
▁소	-10.1646
일단	-10.1647
▁유지하고	-10.1653
▁실수	-10.1654
▁헌법	-10.1656
▁제주	-10.1659
▁진술	-10.1661
▁팀이	-10.1664
▁트위터에	-10.1666
▁공	-10.1666
▁밝히고	-10.1675
▁투수	-10.169
▁뛰어난	-10.1696
한반도	-10.17
▁능력	-10.1702
▁이해할	-10.1706
수사	-10.1706
▁수많은	-10.1708
▁자녀	-10.1716
▁때문이다	-10.172
▁건물	-10.172
잘	-10.172
수록	-10.1735
▁추경	-10.1737
▁이것	-10.174
▁만	-10.1741
피	-10.1746
자는	-10.1748
대한민국	-10.1749
한다고	-10.1749
▁야구	-10.1752
미국의	-10.1764
▁매	-10.1765
▁존재	-10.1769
▁뉴스	-10.1771
▁현대차	-10.1773
사회	-10.178
▁참사	-10.1782
▁검토할	-10.1784
▁자체를	-10.1786
▁프리미엄	-10.1792
▁정부에서	-10.1793
▁중국과	-10.1796
겠지만	-10.1798
▁덜	-10.1799
▁논의할	-10.1799
▁출석	-10.18
▁내수	-10.1803
▁그것을	-10.1803
▁감사하다	-10.1807
▁음악	-10.1811
▁공조	-10.1813
▁아버지	-10.182
▁앞	-10.182
▁후보자가	-10.182
▁별도	-10.1821
기술	-10.1832
▁"6	-10.1832
▁승리	-10.1832
▁친박	-10.1835
▁제기했다	-10.184
▁강화를	-10.1843
▁지역에서	-10.1843
통	-10.1865
▁행동	-10.1867
했으면	-10.187
▁훌륭한	-10.1871
▁보일	-10.1874
이어서	-10.1879
▁불편	-10.188
▁했을	-10.188
▁채널	-10.1881
▁나섰다	-10.1883
▁일방적으로	-10.1883
송	-10.1883
올해는	-10.1887
▁행사에	-10.1893
▁경제에	-10.1894
▁조치가	-10.1905
▁한화	-10.1908
▁교통	-10.1911
다는	-10.1914
▁30%	-10.1917
▁분야에	-10.1919
▁300	-10.192
린	-10.192
▁방지	-10.1929
분께	-10.193
▁상생	-10.1935
▁내비쳤다	-10.1937
▁청와대는	-10.1938
▁대통령에	-10.1939
▁후에	-10.195
철	-10.1954
▁형사	-10.1955
▁참가	-10.1957
▁양형	-10.1959
▁유일한	-10.1969
▁것인데	-10.1969
▁지속될	-10.1971
▁기상청은	-10.1972
▁NH	-10.1972
▁된다면	-10.1977
▁결혼	-10.1979
하자는	-10.1991
▁불러	-10.1994
▁2011	-10.1994
▁진짜	-10.1996
▁여론	-10.1998
▁때부터	-10.2002
하려	-10.2016
사고	-10.2018
▁개입	-10.2022
▁강화하는	-10.2027
만이	-10.2031
▁긴밀한	-10.2031
▁투표	-10.2032
▁국무총리	-10.2032
생	-10.2041
▁500	-10.2044
▁인도	-10.2045
증권	-10.2047
▁확장	-10.2048
▁기대를	-10.2051
▁측의	-10.2052
▁개발을	-10.2061
▁사용할	-10.2062
▁사람들은	-10.2064
▁누구나	-10.2073
▁대법원	-10.2075
▁환율	-10.2075
▁증인	-10.208
▁시작한	-10.2082
▁퇴진	-10.2084
한국의	-10.2094
▁아니라고	-10.2102
▁보장	-10.2104
▁싶었다	-10.2106
▁취지	-10.2112
▁유출	-10.2112
▁받아야	-10.2113
▁2016	-10.2115
▁최고위원회의에서	-10.2123
▁죄송하다	-10.2129
▁부연했다	-10.2129
▁따라서	-10.2134
려	-10.2138
다양한	-10.2141
▁과도한	-10.2144
날	-10.215
▁커지고	-10.2157
▁누리꾼들은	-10.2158
▁안타깝다	-10.2162
▁하는지	-10.2168
▁무리	-10.2168
▁엄청난	-10.2171
▁애널리스트는	-10.2173
▁안에서	-10.2174
▁쓰고	-10.2176
▁처벌	-10.2176
▁제출한	-10.2178
▁실적이	-10.2186
▁워낙	-10.2189
▁탈당	-10.2191
검찰이	-10.2193
▁대응을	-10.2195
그렇게	-10.2196
해왔다	-10.2199
▁기대감을	-10.2205
직	-10.2216
▁재벌	-10.2217
▁형	-10.2221
▁협력해	-10.2222
더라	-10.2223
▁가까이	-10.2226
랑	-10.2226
▁일하는	-10.2228
▁국회를	-10.224
▁국내외	-10.2242
▁치료	-10.2242
▁역할	-10.2242
▁그때	-10.2243
말	-10.2244
▁곳에	-10.2245
▁받기	-10.2245
▁간에	-10.2247
▁정의	-10.2247
▁진행되고	-10.2248
▁발언에	-10.2254
▁대단히	-10.2256
프	-10.2259
▁나라가	-10.2259
한국은	-10.226
▁신속하게	-10.2267
가장	-10.2267
▁계열사	-10.2272
▁수능	-10.2278
▁KBS	-10.2293
▁특혜	-10.2298
이제는	-10.2298
▁높게	-10.2302
▁판단해	-10.2303
정보	-10.2303
▁금지	-10.2304
협회	-10.2311
▁몰랐다	-10.2313
찬	-10.2318
▁결정에	-10.2326
▁찾은	-10.2327
▁성적	-10.2335
▁비판	-10.2337
▁딸	-10.2338
▁하겠다는	-10.2346
▁준비했다	-10.2347
해달라	-10.2348
볼	-10.2348
▁지원이	-10.2348
▁경쟁이	-10.2349
▁노동자	-10.2354
▁성장세	-10.2358
▁어린	-10.2364
▁지방	-10.2364
▁거래소	-10.2368
▁중국이	-10.2369
▁총리가	-10.2369
▁개인의	-10.2375
m	-10.2376
▁시대에	-10.2387
▁그러면서도	-10.2387
되기	-10.2388
▁고객이	-10.239
▁선언	-10.2394
▁자금을	-10.2397
▁이미지	-10.2399
▁면밀히	-10.24
▁관련해선	-10.2405
▁보여준	-10.242
▁보유한	-10.2429
▁엄중한	-10.2439
▁교사	-10.2442
▁권한을	-10.2442
▁확대할	-10.2442
▁북한과	-10.2443
체	-10.2445
▁공약	-10.2445
▁본격적으로	-10.2447
▁발굴	-10.2448
▁전반에	-10.245
▁명확히	-10.2457
▁재단	-10.2461
▁말에	-10.2468
▁기능	-10.2475
▁높여	-10.2475
▁바람	-10.2475
▁신청	-10.2476
9	-10.2477
▁20%	-10.2478
▁원장	-10.2479
큰	-10.2483
▁하느냐	-10.2494
▁뿌리	-10.2495
광	-10.2501
▁마지막으로	-10.2501
▁정부를	-10.2503
안전	-10.2506
▁박사는	-10.2507
▁안정을	-10.2513
▁그게	-10.2515
▁관행	-10.2516
▁PC	-10.2518
▁기재부	-10.252
은행	-10.2521
▁지도자	-10.2525
토	-10.2529
▁맡고	-10.2533
▁규제를	-10.2534
▁심의	-10.2534
▁내용에	-10.2535
▁여러가지	-10.2541
▁수행	-10.2543
▁그만큼	-10.2543
▁부탁드린다	-10.2545
▁건강한	-10.2549
▁교사는	-10.255
▁타고	-10.2558
▁구체적	-10.2563
▁체계	-10.2567
▁가슴	-10.2568
▁그것이	-10.257
▁여야가	-10.2572
▁동기	-10.2573
▁판결을	-10.2574
▁말하고	-10.2578
▁최저임금	-10.2578
적이고	-10.2595
▁과정이	-10.2596
▁적었다	-10.2596
▁조언	-10.2596
봉	-10.2598
태	-10.2607
▁결정이	-10.261
▁작업	-10.261
▁화합	-10.2611
▁산업혁명	-10.2614
▁염	-10.2615
▁사태를	-10.2618
라디오	-10.2618
▁의원과	-10.2619
▁둘러싼	-10.262
▁눈물	-10.262
▁국가가	-10.2622
본부장은	-10.2623
▁감사드린다	-10.2626
▁거부	-10.2627
▁만날	-10.2627
제도	-10.2635
▁법을	-10.2636
▁연계	-10.2641
▁압수수색	-10.2642
▁당선인	-10.2652
▁체결	-10.2653
▁기준금리	-10.2654
▁인식이	-10.2655
▁마치고	-10.2656
▁본인	-10.2658
▁고객에게	-10.2658
▁취지로	-10.2663
▁금융당국	-10.2664
▁경찰이	-10.2668
지를	-10.2669
▁개별	-10.2671
▁참여할	-10.2671
▁불만을	-10.2671
▁통제	-10.2671
▁기소	-10.2672
▁상황은	-10.2677
▁진행될	-10.2679
▁세상을	-10.268
▁하더라	-10.2695
▁남겼다	-10.2698
▁반도체	-10.2699
▁증가하고	-10.2701
▁여행	-10.2701
▁최우선	-10.271
년대	-10.2712
안보	-10.2715
키	-10.2716
▁수익	-10.2721
▁주력	-10.2725
▁지나치게	-10.2729
이냐	-10.2738
▁우리에게	-10.2739
▁질타했다	-10.2743
▁침해	-10.2743
▁이상이	-10.2747
▁잘못을	-10.2748
▁종합적으로	-10.2752
이라면	-10.2756
▁이들이	-10.2758
▁관리를	-10.276
▁곽	-10.276
▁무엇인지	-10.2768
▁하니	-10.277
▁견해	-10.2771
▁언론에	-10.2771
▁털어놨다	-10.2774
▁드러났다	-10.2775
부는	-10.2776
▁의장	-10.2781
▁회동	-10.2783
▁언급하며	-10.2788
▁청문회	-10.2789
역	-10.2801
근	-10.2811
▁된다고	-10.2812
▁희망한다	-10.2816
▁중앙	-10.2822
▁평화를	-10.2823
▁들어가	-10.2829
▁좋아	-10.2831
▁찾기	-10.2835
만의	-10.2836
▁행복한	-10.2837
▁소통을	-10.284
▁전북	-10.2845
▁초점을	-10.2851
▁공공기관	-10.2852
▁수주	-10.2856
▁기부	-10.2856
집	-10.2866
국제	-10.2866
▁중이다	-10.2867
만을	-10.2869
▁사업이	-10.2875
▁나서야	-10.2876
▁입장이	-10.2876
▁역사적	-10.2877
▁않는다면	-10.2879
여야	-10.2884
▁사랑을	-10.2886
▁서민	-10.2887
▁절차에	-10.2887
▁한국이	-10.289
성을	-10.2891
▁의도	-10.2895
▁매출이	-10.2895
▁야권	-10.2897
▁당국	-10.2902
▁의원들의	-10.2903
▁이전에	-10.2903
▁지진	-10.2904
다음	-10.2907
▁여기에	-10.2908
▁의문	-10.2908
▁학생들의	-10.291
▁경쟁을	-10.2914
▁외국	-10.2914
복	-10.2915
▁지사	-10.2918
▁있나	-10.2919
▁발생하는	-10.2922
▁지키기	-10.2923
▁시위	-10.2926
▁인정하고	-10.293
경영	-10.2933
▁입법	-10.2934
▁새누리당의	-10.2936
▁됐으면	-10.2945
선거	-10.2945
▁대책이	-10.2948
시키는	-10.2949
▁갖추고	-10.2951
▁명이	-10.2951
▁답변했다	-10.2953
▁소지	-10.2953
평	-10.2962
▁재개	-10.2968
▁자유	-10.2969
▁사용하는	-10.2974
리그	-10.2976
▁철저하게	-10.298
▁중점	-10.2981
우리의	-10.2983
▁사장	-10.2986
정말	-10.2988
▁주가가	-10.2989
으며	-10.2991
더라도	-10.2991
▁소재	-10.2995
▁세계적인	-10.2996
▁명백한	-10.3005
▁수수료	-10.3005
▁2010	-10.3007
월까지	-10.3008
▁마련해야	-10.3015
▁가입	-10.3017
▁시점에	-10.3018
▁고객들에게	-10.3022
가지	-10.3025
래	-10.3026
▁국회의	-10.3029
▁차기	-10.303
▁효과	-10.3031
빨리	-10.3033
▁향한	-10.3041
▁철회	-10.3046
▁매일	-10.305
▁합리적	-10.3051
▁대사는	-10.3052
▁잊지	-10.3056
▁친박계	-10.3069
▁당원	-10.3071
▁덕분에	-10.3072
▁많지	-10.3072
▁실질적으로	-10.3073
▁긍정적으로	-10.3076
▁인정된다	-10.308
외	-10.3086
▁적도	-10.3092
▁많고	-10.3092
▁전무는	-10.3098
▁통보	-10.3103
▁대전	-10.3103
▁소송	-10.3105
▁군사	-10.3106
▁개발에	-10.3107
장을	-10.3109
▁감안하면	-10.3118
▁현금	-10.3119
▁풀	-10.312
▁아니었다	-10.3121
▁아이들이	-10.3126
▁후보와	-10.3128
▁연기	-10.3131
▁없기	-10.3138
우선	-10.3142
▁얼굴	-10.315
▁가족들	-10.3151
▁총괄	-10.3151
지도	-10.317
▁나중에	-10.3171
트럼프	-10.3173
5000	-10.3174
▁곳에서	-10.3185
▁평했다	-10.3192
▁높아	-10.3194
손	-10.3198
▁화재	-10.3199
▁사람들	-10.3202
▁유지할	-10.3204
▁원고	-10.3209
▁필요성이	-10.321
▁없었던	-10.321
▁마음에	-10.3213
최순실	-10.3225
▁아닌지	-10.3225
▁지정	-10.3228
▁느꼈다	-10.3232
서는	-10.3232
▁하라	-10.3237
했다는	-10.3238
▁역대	-10.324
▁방문한	-10.3242
▁선진국	-10.3243
▁영향력	-10.3249
▁애	-10.3249
▁갖게	-10.325
▁들을	-10.3251
▁밝힐	-10.3251
환	-10.3264
▁단속	-10.3268
▁학부모	-10.3271
▁있겠지만	-10.3272
▁사회가	-10.3272
약	-10.3273
▁내지	-10.3277
▁논평에서	-10.3278
르	-10.3279
▁판단할	-10.3282
▁프랑스	-10.3286
▁모델	-10.3287
▁저희	-10.329
감	-10.3292
▁네티즌들은	-10.3292
▁생활을	-10.3297
▁수차례	-10.3297
▁정책위의장은	-10.3299
▁고개를	-10.3301
매	-10.3303
▁위상	-10.3308
▁무엇을	-10.3309
▁단기	-10.3314
▁도약	-10.3318
▁확인하고	-10.332
▁대체	-10.3321
▁투자가	-10.3321
▁인사는	-10.3323
▁상반기	-10.3327
▁어렵게	-10.3328
▁국정농단	-10.3328
▁증세	-10.3332
▁계속해서	-10.3339
이른바	-10.3341
▁위주로	-10.3348
▁작전	-10.3351
▁사랑	-10.3358
▁합의한	-10.3359
▁정도가	-10.3368
▁2008	-10.3369
▁추구하는	-10.337
추	-10.3375
여성	-10.3381
▁현상이	-10.3384
▁인	-10.3385
▁판단된다	-10.3387
▁인생	-10.3389
▁커질	-10.3395
▁처벌을	-10.3401
▁문제점	-10.3403
▁댓글	-10.3407
▁공정위	-10.3409
▁시너지	-10.3413
▁연금	-10.3415
▁사태가	-10.3424
▁원인	-10.3425
▁끊임없이	-10.3425
▁요즘	-10.3432
달	-10.3434
▁한국에서	-10.3434
▁여론조사	-10.3437
▁하나가	-10.3441
▁최씨는	-10.3441
▁다수	-10.3445
▁소식통은	-10.3447
▁당선	-10.3447
▁개념	-10.3451
▁이야기가	-10.3454
개발	-10.3455
▁투자자들	-10.3459
▁가정	-10.3463
▁말은	-10.3465
▁제시한	-10.347
▁바꾸는	-10.3471
▁발행	-10.3475
▁막을	-10.3476
▁점수	-10.3477
표	-10.3482
▁탄도미사일	-10.3483
▁폭행	-10.3483
▁합병	-10.3495
▁테스트	-10.3503
죠	-10.3515
▁선보일	-10.3519
▁분양	-10.3519
▁나이	-10.3522
▁기억	-10.3524
▁아무리	-10.3525
▁걸로	-10.3525
▁높아지고	-10.353
들에	-10.3531
▁활용한	-10.3534
▁대표하는	-10.3534
▁임원	-10.3534
▁사용자	-10.354
부문	-10.3545
▁저의	-10.3551
▁코스피	-10.3551
▁당일	-10.3553
▁나은	-10.3566
▁고려	-10.3576
▁정례브리핑에서	-10.3577
▁입은	-10.3581
토록	-10.3582
▁현상	-10.3582
▁수준이	-10.3586
▁사실은	-10.359
▁생태계	-10.3591
▁입장에서는	-10.3594
▁주장한	-10.3597
▁본격적인	-10.3598
▁상장	-10.3598
▁영향으로	-10.36
▁경우도	-10.3602
▁문체부	-10.3605
▁가면	-10.3611
▁있습니다	-10.3611
▁금리를	-10.3613
▁협업	-10.3615
▁폭력	-10.3616
▁진출을	-10.3623
▁부탁	-10.3625
▁검토해	-10.3627
▁비대위	-10.3627
▁필요하다는	-10.3629
▁올렸다	-10.3632
▁힘들	-10.3637
▁고객들의	-10.3638
▁선거를	-10.3639
▁클	-10.3644
▁정권이	-10.3648
개의	-10.365
▁초청	-10.3651
▁안정적으로	-10.3654
▁친환경	-10.3656
▁실력	-10.3664
▁대표에게	-10.3665
▁국토부	-10.3666
▁상처를	-10.3672
▁나쁜	-10.3676
▁축제	-10.3676
▁총장	-10.3682
▁오픈	-10.3682
▁들은	-10.3687
한미	-10.3689
▁동료	-10.369
▁5000	-10.3694
▁앞둔	-10.3695
▁뒤에	-10.3695
10	-10.3696
▁지원하겠다	-10.3697
▁저축은행	-10.3699
▁보유하고	-10.3701
▁생길	-10.3703
▁집권	-10.3704
▁곧바로	-10.3704
▁부족하다	-10.3705
▁협의해	-10.3707
하나	-10.3708
▁낮	-10.3709
▁역설했다	-10.3709
▁압박	-10.3711
▁아침	-10.3711
▁활성화를	-10.3717
채	-10.3718
▁없지	-10.372
▁주장하고	-10.372
C	-10.372
▁학생들	-10.3724
▁KIA	-10.3725
▁기사	-10.3727
▁채택	-10.373
▁출발	-10.3733
▁현대	-10.3736
▁관계자도	-10.3736
▁스	-10.3737
▁협치	-10.3739
미사일	-10.374
▁염두에	-10.3747
▁자본	-10.3754
▁요인	-10.3759
▁2018	-10.376
▁공감	-10.3762
▁먹고	-10.3763
▁재판을	-10.3768
▁전시	-10.377
▁돼서	-10.3771
▁아예	-10.3772
▁생각은	-10.3774
▁정당한	-10.3775
▁여름	-10.3775
▁방식을	-10.3777
해온	-10.3782
▁파악하고	-10.3782
씩	-10.3786
▁좋을	-10.3788
▁반영해	-10.3791
▁부진	-10.3791
▁설명	-10.3793
▁시작으로	-10.3795
▁높이기	-10.3795
▁집단	-10.3795
▁장소	-10.3798
보고	-10.3798
너무	-10.38
▁글	-10.3801
▁못하면	-10.3806
▁이용할	-10.3813
▁측에서	-10.3817
▁자연스럽게	-10.3819
▁이벤트	-10.382
하더라도	-10.3827
대선	-10.3828
중국은	-10.3831
▁나가	-10.3832
▁판결했다	-10.3834
▁팔	-10.3836
▁화장품	-10.384
덕	-10.3841
▁확인한	-10.3842
▁끌고	-10.3842
▁실시	-10.3845
▁바람직하지	-10.3848
▁나라의	-10.3849
▁배당	-10.3851
▁북	-10.3855
한테	-10.3862
▁위로	-10.3867
▁면에서	-10.3869
▁기존의	-10.3872
▁데이터	-10.3873
▁매체	-10.3875
▁회사가	-10.3877
▁반성하고	-10.388
▁코리아	-10.388
▁전달했다	-10.3881
▁모았다	-10.3889
▁현안	-10.3892
시킨	-10.3896
▁나도	-10.3896
▁사유	-10.3898
▁바람직하다	-10.39
당이	-10.39
새누리당은	-10.3911
▁원인을	-10.3912
▁주장은	-10.3912
▁별로	-10.3918
▁한계	-10.3919
▁여유	-10.3922
그간	-10.3924
▁차이	-10.3927
▁선언했다	-10.3929
미국이	-10.3931
▁도로	-10.3931
▁주도	-10.3933
기간	-10.3944
범	-10.3951
희	-10.3951
▁"20	-10.3956
▁언급	-10.3956
▁감사의	-10.3961
습니다	-10.3963
▁아이들	-10.3968
▁목소리가	-10.3978
었던	-10.3978
▁기초	-10.3979
▁제공하고	-10.3987
▁차별	-10.3987
미국은	-10.3988
▁예방	-10.3988
▁작성	-10.3993
▁갖는	-10.3997
▁최소	-10.4001
▁불확실성이	-10.4006
▁지방선거	-10.4007
▁학생은	-10.4011
▁살고	-10.4014
▁부품	-10.4019
▁나타났다	-10.402
▁애플	-10.4022
▁계파	-10.4022
▁호텔	-10.4036
▁이길	-10.4039
▁확실한	-10.4039
▁추석	-10.4044
▁팀에	-10.4044
▁오바마	-10.405
▁아래	-10.4052
▁코	-10.4052
▁노사	-10.4053
▁확대하고	-10.4057
▁반영	-10.406
▁있겠다	-10.4063
▁점검	-10.4063
▁접근	-10.4067
환경	-10.4069
명은	-10.4075
▁통화정책	-10.4077
▁종료	-10.4078
▁적지	-10.4079
예	-10.4089
▁장기적으로	-10.409
▁현장을	-10.4095
▁시점에서	-10.4096
▁성적을	-10.4098
▁여부는	-10.4098
▁눈에	-10.4101
▁본인의	-10.4103
▁그걸	-10.4105
▁보다는	-10.4107
▁텐데	-10.4108
▁해명	-10.4109
▁제안을	-10.4113
▁이달	-10.4117
▁나오면	-10.4118
▁또다시	-10.4122
▁바꿀	-10.4122
분의	-10.4126
▁담긴	-10.4129
▁네	-10.4133
▁확고한	-10.4137
▁움직임	-10.414
▁불가능하다	-10.4152
▁무기	-10.4153
▁집에	-10.4157
▁나눔	-10.4157
▁증거가	-10.4159
▁복지부	-10.416
▁보유	-10.4165
안철수	-10.4167
▁새누리당은	-10.4168
▁대선후보	-10.417
어느	-10.4174
▁관광객	-10.4174
▁형태로	-10.4176
▁직원들이	-10.4176
▁진행한	-10.4177
시스템	-10.4177
▁도전	-10.4183
▁인증	-10.4184
게임	-10.4194
▁실무	-10.4194
▁개인정보	-10.4195
▁불가피하다	-10.4195
▁부인	-10.4196
▁정비	-10.4199
▁네트워크	-10.4201
▁조작	-10.4205
▁사고를	-10.4205
▁올림픽	-10.4207
▁표	-10.4207
▁비가	-10.4208
▁가능성	-10.4209
▁넘게	-10.4212
▁선수들의	-10.4215
▁셈	-10.4219
▁인구	-10.422
달러	-10.4225
검사	-10.4225
▁중요성을	-10.4227
▁증인으로	-10.4232
▁베트남	-10.4233
▁차질	-10.424
기에	-10.4246
▁핵실험	-10.4249
▁중소	-10.4252
▁규정	-10.4255
▁싶어	-10.4255
▁2009	-10.4259
▁구조를	-10.426
▁좋았다	-10.4264
▁부정	-10.4265
▁기업을	-10.4271
▁금융시장	-10.4283
▁D	-10.429
▁경우에는	-10.4293
▁정상적인	-10.4296
▁적폐	-10.4298
▁조선	-10.4302
▁아이폰	-10.4303
조직	-10.4303
▁제안	-10.4304
▁위기에	-10.4306
크	-10.4308
▁포기	-10.4313
▁특위	-10.4314
▁성공적인	-10.4316
▁피의자	-10.4316
▁AI	-10.4317
▁단지	-10.4317
▁않는다는	-10.4318
▁해결하기	-10.4318
▁고려하면	-10.432
▁위원장	-10.432
▁사법부	-10.4323
▁우수	-10.4323
▁취할	-10.4325
▁줄어들	-10.4331
▁유리한	-10.4332
▁박씨는	-10.4333
▁어렵고	-10.4333
▁위에	-10.4338
▁차장은	-10.4338
함에	-10.434
스러운	-10.4348
▁방안이	-10.4353
FTA	-10.4355
▁경험	-10.4359
▁매장	-10.436
▁선도	-10.4363
▁요청	-10.4364
▁유동성	-10.4369
▁해석	-10.4369
▁취지를	-10.437
▁결제	-10.4372
▁논란에	-10.4373
▁감독의	-10.4374
▁전달	-10.4379
▁그럴	-10.4383
▁강력하게	-10.4389
▁사람들의	-10.4393
▁잠시	-10.4394
키로	-10.4395
▁조사에	-10.4397
▁인터뷰를	-10.4398
이면	-10.44
▁류중일	-10.4402
▁시사했다	-10.4408
▁못하게	-10.4408
▁선택을	-10.4413
▁대행은	-10.4416
▁되었다	-10.4418
▁내려	-10.442
▁여러분께	-10.4423
▁이용자	-10.4428
▁세대	-10.4434
통합	-10.4434
▁철도	-10.4435
▁않겠다는	-10.4436
때	-10.4445
돈	-10.4445
제를	-10.4449
▁의심	-10.4453
겠다는	-10.4453
▁느끼고	-10.4456
▁협조	-10.4469
▁보고를	-10.447
회의	-10.447
▁갈수록	-10.447
이날	-10.4471
림	-10.4483
▁참여해	-10.4485
께	-10.4485
▁은퇴	-10.4485
▁설계	-10.4487
▁국장은	-10.4491
▁귀띔했다	-10.4491
▁발언은	-10.4496
▁투쟁	-10.4497
▁신한금융투자	-10.4499
▁오른	-10.4503
▁변호인	-10.4503
사건	-10.4508
▁필요하다고	-10.4509
▁위험이	-10.451
▁이룰	-10.4511
빈	-10.4512
▁부당한	-10.4516
▁조만간	-10.4519
▁경기에서	-10.4525
▁자원	-10.4526
▁한은	-10.453
▁운동	-10.4531
▁없어서	-10.4532
▁받아들일	-10.4536
이명박	-10.4536
▁눈	-10.4539
▁3000	-10.4541
▁갔다	-10.4542
투	-10.4546
▁내내	-10.4546
▁아쉽다	-10.4555
▁최경환	-10.4556
이니	-10.4558
성이	-10.4562
▁이어지고	-10.4564
▁기술력	-10.4566
▁별	-10.4567
▁인정했다	-10.4569
▁진입	-10.4572
▁혹은	-10.4573
여서	-10.4574
▁생각할	-10.4575
▁청소년	-10.4576
▁올려	-10.4579
▁예상한다	-10.4581
시켰다	-10.4585
▁공공	-10.4587
▁목숨	-10.4588
▁늘었다	-10.4594
▁화답했다	-10.46
▁파업	-10.4604
▁선고했다	-10.4606
▁저지른	-10.4607
▁절감	-10.461
▁내놨다	-10.4616
▁직무	-10.4618
▁삼아	-10.4619
▁특허	-10.4623
북	-10.4626
▁사면	-10.4626
▁파악	-10.4629
▁의원들은	-10.4631
▁식사	-10.4634
▁콘텐츠를	-10.4635
됐지만	-10.4639
▁생겼다	-10.464
▁직원이	-10.4643
국민이	-10.4651
▁물을	-10.4652
▁국민들은	-10.4652
▁감시	-10.4655
▁보완	-10.4657
▁행정부	-10.4658
▁복귀	-10.466
▁무죄	-10.466
▁비난	-10.4673
▁파견	-10.4675
시키고	-10.4676
▁단순한	-10.468
▁겨울	-10.4681
▁경	-10.4682
▁운	-10.4683
▁정권교체	-10.4687
▁전직	-10.469
법을	-10.4693
▁응원	-10.4694
▁예산안	-10.4695
▁만약	-10.4696
▁표했다	-10.4697
▁국민연금	-10.4698
당의	-10.4698
▁전남	-10.4699
▁힘	-10.47
▁아꼈다	-10.4701
▁증가할	-10.4703
▁짧은	-10.4708
▁비용이	-10.4713
▁식품	-10.4716
▁국정조사	-10.4716
▁70%	-10.4718
해도	-10.4719
연구소	-10.4721
▁국정감사에서	-10.4726
▁경향이	-10.4729
▁오랫동안	-10.4732
인가	-10.4736
▁독립	-10.474
▁모니터링	-10.4747
▁대사	-10.4752
▁정확하게	-10.4754
▁확충	-10.4762
▁강제	-10.4766
더니	-10.4769
▁발생했다	-10.4769
▁지적이	-10.4771
▁충실히	-10.4772
▁밝혀야	-10.4776
병원	-10.4781
▁전문가들은	-10.4781
▁가격을	-10.4784
왔다	-10.4786
▁찾고	-10.4786
▁지표	-10.4787
▁통신	-10.4788
▁선거에	-10.4788
▁이해하고	-10.4793
▁강조한	-10.4795
▁정한	-10.4797
▁사람에게	-10.48
▁중국에	-10.4803
▁상태로	-10.4804
▁학생들에게	-10.4805
▁의회	-10.4807
▁우리은행	-10.481
▁사람들에게	-10.4814
▁학습	-10.4816
▁바꿔	-10.4818
▁분명한	-10.482
▁비전	-10.4823
▁요청을	-10.4823
▁회담	-10.4825
너	-10.4828
▁연봉	-10.4829
▁책임감을	-10.4833
복지	-10.4837
거래	-10.4837
▁사람들을	-10.4839
▁질서	-10.4839
▁감독도	-10.4839
▁발언이	-10.4841
▁취지의	-10.4843
▁포트폴리오	-10.4845
▁원심	-10.4856
주의	-10.4859
▁소환	-10.4859
▁우승	-10.4866
가격	-10.4867
새누리당	-10.4869
▁취소	-10.4871
▁진행하는	-10.4872
과정에서	-10.4873
▁공약을	-10.4875
▁동	-10.4876
함을	-10.4876
▁저를	-10.4879
▁진술한	-10.488
▁촛불	-10.4882
평소	-10.4883
망	-10.4885
▁비핵화	-10.4886
▁제기	-10.4887
▁대표도	-10.4891
▁문제의	-10.4891
▁식의	-10.4894
▁것이기	-10.4899
▁생긴	-10.4901
▁농업	-10.4902
▁노하우를	-10.4903
본부	-10.4904
▁죄질이	-10.4904
▁희생	-10.4908
▁나가기	-10.491
▁지역구	-10.4912
▁정리	-10.4916
건설	-10.492
아시아	-10.492
▁민주당이	-10.4931
▁평생	-10.4934
▁제보	-10.4936
▁자격	-10.4937
▁e	-10.494
▁점도	-10.4943
▁제기한	-10.4944
▁이미지를	-10.4946
▁쇼핑	-10.4949
▁울산	-10.495
울	-10.4956
▁난다	-10.4957
▁수정	-10.4957
점을	-10.4958
▁전까지	-10.4958
▁연결	-10.4959
▁번도	-10.4959
▁위치한	-10.4962
▁경제민주화	-10.4965
▁어려워	-10.4969
▁줄일	-10.4969
▁한국투자증권	-10.497
▁주장이	-10.4972
▁근로자	-10.4976
▁준비하는	-10.4977
▁심각하게	-10.4981
▁고민을	-10.4983
▁국민은	-10.4985
▁제외한	-10.4992
외교	-10.4993
▁자금이	-10.4996
▁제안한	-10.4996
어야	-10.4998
▁실적을	-10.5
▁문제도	-10.5
암	-10.5004
▁연설	-10.5008
▁플레이	-10.5014
유럽	-10.5015
▁경험과	-10.5016
▁부모	-10.5018
▁수준에	-10.5018
▁신문	-10.502
▁불확실성	-10.502
▁장애인	-10.5022
▁알려진	-10.5024
▁뇌물	-10.5024
▁계획이	-10.5025
▁없으면	-10.503
▁상태가	-10.503
▁걸어	-10.5034
▁창조경제	-10.5034
된다면	-10.5037
▁결단을	-10.5037
▁전기	-10.5041
▁코스닥	-10.5042
▁강남	-10.5043
▁제조	-10.5044
▁민주노총	-10.5045
▁영상	-10.5045
▁5·18	-10.5045
▁적절치	-10.5046
▁TF	-10.5047
▁자꾸	-10.5049
▁환경이	-10.505
▁이것이	-10.505
▁인정할	-10.5052
▁보여주고	-10.5053
▁소리를	-10.5054
▁정신	-10.5061
▁이뤄지고	-10.5063
▁법인세	-10.5068
▁토론	-10.5068
X	-10.5068
▁행위는	-10.5073
▁성실히	-10.5073
▁소위	-10.5076
▁가겠다	-10.5081
▁씨	-10.5084
▁찬성	-10.5086
▁지자체	-10.5087
▁야	-10.5088
▁신속한	-10.5088
주는	-10.5089
▁이사회	-10.5089
▁신한은행	-10.5093
▁가량	-10.5094
▁확대될	-10.5094
▁없게	-10.5095
▁신속히	-10.5096
▁성공을	-10.5096
▁상담	-10.5097
▁캠페인	-10.5099
평가	-10.5101
필	-10.5102
▁분노	-10.5104
그는	-10.5106
▁드라마	-10.5112
▁기대가	-10.5113
▁노력해야	-10.5113
▁풍부한	-10.5116
▁재판부	-10.5117
균	-10.5119
포인트	-10.512
▁결심	-10.5122
▁알지	-10.5123
어려운	-10.5124
▁너무나	-10.5125
▁지도	-10.5128
▁했다는	-10.5129
▁확신한다	-10.513
▁대외	-10.5132
▁접한	-10.5132
▁메이저리그	-10.5138
▁시기를	-10.5141
▁수급	-10.5144
▁거기에	-10.5144
▁사이버	-10.5144
▁삼성증권	-10.5146
▁아쉬움	-10.5146
▁결정한	-10.5151
범죄	-10.5156
▁일이다	-10.5159
▁하려고	-10.5161
▁마찬가지	-10.5164
▁피했다	-10.5164
SK	-10.5166
▁발표할	-10.5167
▁인터뷰	-10.5167
▁생명을	-10.5168
▁금융회사	-10.5168
행정	-10.5172
▁당연한	-10.5176
▁특수	-10.5179
▁KBO	-10.5187
P	-10.5188
▁화	-10.5188
것도	-10.5189
▁부분도	-10.5199
▁않아도	-10.5206
▁커	-10.5207
▁총력	-10.5209
▁기업과	-10.521
▁전제로	-10.5212
경찰	-10.5212
▁2007	-10.5218
▁구상	-10.5227
▁굳이	-10.5231
▁생각에	-10.5234
▁담배	-10.5243
예산	-10.5245
▁실천	-10.5248
학과	-10.5249
▁김대중	-10.525
▁검토하겠다	-10.5251
▁전년	-10.5254
▁기업으로	-10.5254
▁전당대회	-10.5256
▁외에도	-10.5261
▁않았을	-10.5262
▁혐의에	-10.5263
▁정책의	-10.5263
▁후원	-10.5267
▁달라고	-10.5267
▁어쩔	-10.5269
▁이용한	-10.527
▁길로	-10.5272
▁권력	-10.5273
▁엄정	-10.5277
함	-10.5277
터	-10.5278
▁그가	-10.5282
▁이해가	-10.5285
▁이끌	-10.5288
▁밝혔습니다	-10.529
▁감사를	-10.5291
▁하에	-10.5291
기업의	-10.5292
▁독도	-10.5296
낼	-10.5296
▁획기적	-10.5301
만명	-10.5304
▁동향	-10.5304
▁스트레스	-10.5309
▁많은데	-10.5313
카드	-10.5313
▁시간에	-10.5313
▁이어갈	-10.5315
▁필요할	-10.5319
▁수상	-10.532
자동차	-10.532
▁그래도	-10.5324
▁연휴	-10.5325
▁행보	-10.5328
▁선수를	-10.5329
삼성	-10.5329
▁마련하겠다	-10.533
▁장치	-10.5332
▁국가와	-10.5333
▁인식하고	-10.5333
▁산업의	-10.5334
▁등록	-10.534
▁떨어지는	-10.5346
▁추정된다	-10.5349
문제	-10.536
▁사건과	-10.5366
▁금융위기	-10.5369
▁선박	-10.537
▁부총리	-10.5371
▁후보로	-10.5376
▁비판을	-10.5378
▁질문	-10.5379
▁지출	-10.538
▁친	-10.5381
▁통합을	-10.5382
▁올해는	-10.5382
▁합의했다	-10.5384
▁얻은	-10.5384
▁원내수석부대표	-10.5385
▁널리	-10.5386
▁인물	-10.5387
갑	-10.5389
▁노후	-10.539
▁알았다	-10.5396
▁명확한	-10.5398
▁말아야	-10.5399
▁중간	-10.5402
▁줄이는	-10.5409
▁반응이	-10.5409
▁절반	-10.5412
▁불필요	-10.5418
▁활동에	-10.5419
▁선수들에게	-10.5421
어떻게	-10.5423
▁손해배상	-10.5423
▁현행	-10.5424
▁비춰	-10.5426
▁느끼는	-10.5426
▁원래	-10.5426
▁만남	-10.543
▁대체로	-10.5431
오히려	-10.5433
▁말했습니다	-10.5435
▁반발했다	-10.5436
▁법과	-10.5436
▁면세점	-10.5439
그럼에도	-10.5451
▁개선에	-10.5452
▁조항	-10.5452
▁국방	-10.5454
▁해결하는	-10.5468
▁공부	-10.5472
▁법인	-10.5472
▁위험한	-10.5476
무엇보다	-10.5477
▁전반적으로	-10.5477
▁여러분	-10.5478
▁사이에서	-10.5483
규	-10.5488
▁넥센	-10.5492
▁이들의	-10.5493
▁요인이	-10.5493
▁완전	-10.5494
▁당사자	-10.5496
▁방향	-10.5498
▁재원	-10.5498
▁비전을	-10.5503
되	-10.5509
▁줄이고	-10.551
▁"9	-10.5511
▁이사	-10.5514
에너지	-10.5515
▁직업	-10.5516
▁고려했다	-10.5516
▁진행되는	-10.5517
인사	-10.5518
▁수색	-10.5519
▁구단은	-10.5519
했었다	-10.5519
▁말까지	-10.5519
▁본사	-10.5522
▁보여줄	-10.5522
▁예상되는	-10.5528
▁책무	-10.5529
▁대출을	-10.5536
▁입고	-10.5541
행	-10.5542
▁봤을	-10.5542
▁전개	-10.5546
▁문을	-10.5547
▁보도에	-10.555
▁의지	-10.5554
이후	-10.5554
▁요구하고	-10.5555
▁진보	-10.5561
▁우려된다	-10.5562
▁지명	-10.5566
▁이사장	-10.5569
▁어머니	-10.557
▁생각하면	-10.5572
▁총선에서	-10.5573
▁수비	-10.558
삼	-10.5581
▁신청을	-10.5582
▁다하고	-10.5585
▁조속한	-10.5586
▁협약	-10.5588
다시	-10.5589
▁특성	-10.5591
하니	-10.5593
▁압박했다	-10.5599
▁여권	-10.56
▁늘리는	-10.5602
▁당대표	-10.5602
▁수용	-10.5605
▁짓	-10.5605
▁고민하고	-10.5605
자를	-10.5606
▁비상	-10.5609
▁차지하는	-10.562
▁없으며	-10.562
▁쉬운	-10.5626
▁할인	-10.5626
씨와	-10.5626
자의	-10.5627
▁양극화	-10.563
▁주말	-10.5631
▁인용해	-10.5634
▁비례대표	-10.5635
▁부대변인은	-10.5637
구조	-10.564
당장	-10.564
▁모델을	-10.5641
▁월드컵	-10.5648
▁신문은	-10.5653
▁패션	-10.5655
▁체제를	-10.5657
측은	-10.5659
▁민주당의	-10.5659
▁떨어져	-10.5661
▁높아질	-10.5664
▁여러분의	-10.5665
▁나타나고	-10.5666
▁개선이	-10.5668
▁이뤄지는	-10.5675
▁심정	-10.568
▁불신	-10.5682
사가	-10.5684
▁아직까지	-10.5684
▁특별히	-10.5687
▁해수부	-10.5687
▁크고	-10.5688
▁본연	-10.5694
▁실패	-10.5695
▁막대한	-10.5696
듯	-10.5697
▁금액	-10.5697
▁NC	-10.5699
▁확정	-10.5703
▁담은	-10.5704
고객	-10.5706
▁정치가	-10.571
▁결정된	-10.5711
▁프로	-10.5712
▁거짓	-10.5713
▁간다	-10.5714
▁금리인상	-10.5717
▁노동당	-10.5718
▁우리나라의	-10.5718
▁본회의	-10.5722
▁자세를	-10.5725
▁미국에	-10.5726
▁격차	-10.5726
▁여자	-10.573
▁버스	-10.573
▁운영을	-10.5731
▁예산이	-10.5737
▁상당수	-10.5738
▁올라	-10.5743
▁네이버	-10.5744
▁보며	-10.5748
▁지금의	-10.5748
▁사실관계	-10.575
▁필수	-10.5758
▁지금도	-10.5761
중국의	-10.5762
▁조금씩	-10.5763
항	-10.5764
▁대통령도	-10.5765
▁동영상	-10.5769
▁서류	-10.5769
▁매수	-10.5777
▁엄중	-10.5781
▁아이디어	-10.5781
▁긴	-10.5781
▁했는지	-10.5785
▁편성	-10.5787
LG	-10.5788
▁사회공헌	-10.5789
지난달	-10.579
▁즉	-10.5791
▁작용할	-10.5791
단계	-10.5794
▁상향	-10.5796
▁인사청문회	-10.58
▁빠진	-10.5802
▁아이를	-10.5802
▁제휴	-10.581
▁플랫폼	-10.581
▁안내	-10.5811
▁센터장은	-10.5811
▁양보	-10.5812
▁외교적	-10.5812
▁업종	-10.5812
▁상임위	-10.5813
▁근본적으로	-10.5814
▁뜻이	-10.5816
▁메시지	-10.5816
▁기본적으로	-10.582
▁도발에	-10.5822
▁브라질	-10.5824
▁되는데	-10.5827
▁지도부가	-10.5827
▁극복	-10.5833
▁증거를	-10.5834
▁없는데	-10.5835
▁라	-10.584
▁목표는	-10.5844
▁고소	-10.5847
야당	-10.5847
▁강력	-10.5856
▁내릴	-10.586
▁추후	-10.586
▁늘어난	-10.5862
▁입	-10.5864
▁발전시켜	-10.5865
▁못했던	-10.5869
▁것이란	-10.5872
▁통	-10.5875
▁말하기도	-10.5884
전을	-10.5887
야당이	-10.5887
▁정신적	-10.5891
▁책임자	-10.5897
▁예정된	-10.5897
▁동력	-10.5898
졌다	-10.5902
▁중요하지만	-10.5904
▁기본적인	-10.5907
애	-10.5908
▁예측	-10.5909
▁생각으로	-10.5909
▁처분	-10.5911
▁제조업	-10.5911
▁잡을	-10.5912
▁분리	-10.5916
▁관계에	-10.5916
증	-10.5921
▁자연	-10.5921
▁여건	-10.5921
▁S	-10.5922
발전	-10.5923
▁별도로	-10.5925
▁경쟁력이	-10.5925
▁않았던	-10.5926
실제	-10.5927
▁저녁	-10.5928
▁효율성	-10.5928
▁써	-10.593
대통령의	-10.593
▁하자는	-10.5933
▁신중하게	-10.5933
락	-10.5935
▁법정	-10.5942
▁휴대전화	-10.5942
단순	-10.5942
시간이	-10.5945
▁압박을	-10.5949
심은	-10.5949
▁지배구조	-10.5955
▁소명	-10.5955
▁공유	-10.5959
▁나타날	-10.5961
▁신호	-10.5961
▁예보했다	-10.5963
▁봐도	-10.5965
공장	-10.5967
▁잡아	-10.5972
▁고유	-10.5972
이것은	-10.5974
▁환경부	-10.5974
처음	-10.5975
하고자	-10.5978
▁노선	-10.5981
▁잘라	-10.5983
되길	-10.5983
▁지키고	-10.5984
▁장비	-10.5989
▁알리는	-10.5996
▁학생이	-10.5997
▁과세	-10.5998
▁출마를	-10.5999
▁신흥국	-10.5999
▁가동	-10.6
▁갈등이	-10.6001
▁사업의	-10.6003
▁경찰의	-10.6004
▁실망	-10.601
해서는	-10.6018
▁업무에	-10.6018
▁노래	-10.6023
▁국내에서	-10.6027
▁서울시장	-10.6027
▁기준이	-10.6029
▁서면	-10.603
▁경고	-10.6031
전에	-10.6032
▁목적이	-10.6034
▁나눠	-10.6034
외국인	-10.6037
▁인양	-10.6041
▁해결해야	-10.6041
▁목	-10.6042
▁사태에	-10.6044
▁차원	-10.6046
▁기술이	-10.6051
▁모임	-10.6053
▁문건	-10.6055
▁났다	-10.606
▁맞서	-10.6061
▁사실과	-10.6065
국정원	-10.6069
▁살려	-10.6074
▁비서실장	-10.6074
▁것이지	-10.6076
▁책임은	-10.6081
▁매체는	-10.6082
▁떨어진	-10.6085
▁올릴	-10.6087
▁어디	-10.6088
▁현실적으로	-10.6088
▁경남	-10.6094
▁방어	-10.6097
▁간담회	-10.6098
▁치료를	-10.6099
▁제공해	-10.61
같이	-10.61
보험	-10.6105
▁간부	-10.6109
▁정도는	-10.6115
▁동맹	-10.6124
▁하도록	-10.6127
▁모르고	-10.6129
▁결정은	-10.613
양국	-10.613
▁아니	-10.6132
▁고문은	-10.6132
▁수석이	-10.6133
▁캐릭터	-10.6139
▁투명성	-10.614
▁여건이	-10.6146
검찰은	-10.6148
▁핵과	-10.615
▁상황이다	-10.6151
▁규정을	-10.6153
▁방한	-10.6156
▁나서서	-10.6157
탄	-10.6159
▁카	-10.6161
▁사장이	-10.6162
▁후보에게	-10.6162
합니다	-10.6163
▁커피	-10.6163
절	-10.6167
▁주식을	-10.6167
▁늘어나고	-10.6173
에게는	-10.6173
▁감독을	-10.6176
▁공직자	-10.6178
▁역량	-10.6178
▁현재까지	-10.6179
▁도리	-10.6184
▁최고경영자	-10.6186
▁각국	-10.6193
▁둔화	-10.6194
▁부장판사는	-10.6195
▁시급하다	-10.6195
▁얘기했다	-10.6197
▁수원	-10.6198
▁부패	-10.6201
▁해야한다	-10.6202
▁의사가	-10.6205
▁재판관	-10.6205
▁정책은	-10.6206
력	-10.6208
▁시민들이	-10.6208
▁나면	-10.6209
▁빠져	-10.6213
▁정해진	-10.6214
▁확실하게	-10.6216
▁위협을	-10.6223
▁피해자가	-10.6225
▁얻고	-10.6229
▁의원에게	-10.6231
노무현	-10.6232
▁우리도	-10.6235
▁재미를	-10.6235
▁향상	-10.6236
▁성장이	-10.6237
▁변화와	-10.6239
▁오를	-10.624
▁학생들은	-10.6241
▁대화와	-10.6245
실장은	-10.6246
▁당에	-10.6247
사업을	-10.6252
섭	-10.6252
▁사용한	-10.6259
하느냐	-10.6262
▁해법	-10.6263
▁융합	-10.6263
▁공식적으로	-10.6274
▁분들의	-10.6278
▁대신증권	-10.6278
▁강세	-10.6279
▁일할	-10.6281
▁부채	-10.6283
▁이익이	-10.6283
▁1%	-10.6285
▁직원은	-10.6286
부동산	-10.629
▁재산	-10.6291
▁직전	-10.6292
▁80	-10.6292
▁관리에	-10.6296
보수	-10.6296
▁시각	-10.6296
▁결정하는	-10.6296
▁해군	-10.6297
▁정책과	-10.6297
▁산업부	-10.6298
▁허용	-10.6302
▁비공개	-10.6307
▁마련하고	-10.6311
▁걸고	-10.6322
세대	-10.6322
▁여기	-10.6326
▁다졌다	-10.6328
▁만족도	-10.6332
▁않겠나	-10.6333
국장은	-10.6334
▁드러난	-10.6334
▁작가	-10.6336
▁집중할	-10.6339
▁사람도	-10.634
▁실질적	-10.6341
▁보여줬다	-10.6343
▁처리를	-10.6345
▁제도적	-10.6345
▁진료	-10.6354
▁것임을	-10.6355
성과	-10.6356
▁미디어	-10.6357
▁문서	-10.6359
▁물건	-10.6362
▁회원	-10.6362
▁성능	-10.6368
져	-10.637
▁제재를	-10.6375
▁달하는	-10.6377
로서의	-10.6378
▁왕	-10.6378
▁위협에	-10.6384
▁지킬	-10.6388
▁자격이	-10.6393
▁이용하는	-10.6394
▁행위에	-10.6396
▁사안이	-10.6398
▁공감대	-10.6399
▁건전한	-10.64
▁자유를	-10.6402
▁속도를	-10.6406
▁이웃	-10.6408
▁막	-10.6409
▁경위	-10.641
▁체험	-10.6411
▁속에서도	-10.6413
▁반대한다	-10.6416
▁계좌	-10.6418
임에도	-10.642
▁당한	-10.6421
▁보내는	-10.6423
업무	-10.6423
▁요청한	-10.6424
▁됐고	-10.6425
▁요구가	-10.6427
▁경우에도	-10.643
▁중동	-10.643
▁판	-10.6436
▁시작할	-10.6437
▁벌	-10.6438
▁안전에	-10.6438
▁소비자들이	-10.6444
▁가져야	-10.6445
▁이어지는	-10.6446
▁확인해	-10.6448
▁운전	-10.6449
▁김모씨는	-10.6453
▁최악	-10.6454
▁기대에	-10.6456
▁이게	-10.646
대기업	-10.6461
▁소비자의	-10.6461
▁한국은	-10.6462
▁40%	-10.6463
▁시작된	-10.6467
▁웃음	-10.647
▁창당	-10.6472
▁선출	-10.6472
▁조기에	-10.6475
▁정작	-10.6476
판매	-10.6477
▁작품	-10.6478
특정	-10.6479
▁외교부는	-10.6481
정치적	-10.6481
▁뭔가	-10.6485
▁소비자들의	-10.6486
▁군의	-10.6488
▁유지하는	-10.6491
▁유족	-10.6492
▁입장은	-10.6498
▁의도가	-10.6499
▁정당이	-10.65
운영	-10.6503
다가	-10.6503
▁비교적	-10.6503
▁입장이다	-10.6506
▁시중은행	-10.6507
▁밝히는	-10.6507
▁무게	-10.6508
▁생명과	-10.6508
▁과학	-10.6511
왕	-10.6522
▁고발	-10.6522
▁위협이	-10.6524
전략	-10.6525
▁민원	-10.6537
▁열었다	-10.6539
▁부지	-10.654
▁아마	-10.6541
▁확보할	-10.6542
언	-10.6542
▁기록을	-10.6543
사회적	-10.6545
▁다수의	-10.6546
단체	-10.6547
▁설명을	-10.6549
▁시신	-10.655
▁자신들의	-10.6551
▁원인이	-10.6552
▁경영권	-10.6554
▁주민들이	-10.6555
▁정식	-10.6557
▁허위사실	-10.6561
▁내야	-10.6562
친	-10.6563
▁성장률	-10.6563
▁보인	-10.6566
▁아닐	-10.6567
▁수술	-10.6568
▁정권교체를	-10.6568
▁도저	-10.6575
▁발의	-10.6581
▁장기간	-10.6581
▁의원에	-10.6582
편	-10.6584
▁체계를	-10.6586
▁해양	-10.6589
▁극복하고	-10.6591
▁파	-10.6595
▁중단하고	-10.6596
▁택시	-10.6596
▁적합한	-10.6599
변	-10.66
▁배우	-10.6602
츠	-10.6606
중소기업	-10.6612
▁선수는	-10.6619
▁집을	-10.662
▁유저	-10.662
▁권한	-10.6621
▁지켜야	-10.6622
▁살인	-10.6623
관계	-10.6626
▁기각	-10.6628
텔레콤	-10.6628
기가	-10.663
▁들어갈	-10.6632
▁연말	-10.6634
▁불과	-10.6635
▁내놓은	-10.6636
▁이하	-10.6638
▁양적완화	-10.664
대출	-10.6641
▁짧게	-10.6641
▁무죄를	-10.6642
▁통상	-10.6643
시즌	-10.6648
▁아름다운	-10.665
▁있을까	-10.6651
▁반성	-10.6654
▁높고	-10.6657
억원이	-10.666
▁눈치	-10.6662
▁지원해	-10.6664
▁확보를	-10.6664
▁정규직	-10.6666
▁해당한다	-10.6667
▁공개한	-10.6668
▁판단이	-10.6669
▁칭찬했다	-10.6674
▁고려대	-10.6676
▁매입	-10.6679
▁걸릴	-10.668
▁정상적으로	-10.6682
▁SBS	-10.6686
▁지낸	-10.6686
▁대처	-10.6689
▁측면	-10.6691
▁내기	-10.6696
▁실정	-10.6697
장이	-10.6704
▁지원하고	-10.6704
▁비교해	-10.6705
▁반발	-10.6709
▁지켜봐야	-10.6715
▁대표적인	-10.6716
▁영입	-10.6717
▁마찬가지로	-10.6718
▁사건으로	-10.6719
▁지지율	-10.6719
총	-10.6719
▁활성화에	-10.6722
▁전반적인	-10.6724
▁땐	-10.6727
▁실행	-10.6727
▁대국민	-10.673
▁걱정이	-10.6742
▁왜곡	-10.6742
▁국제적	-10.6743
▁실효성	-10.6745
▁판단에	-10.6747
▁최소화	-10.6747
▁지역경제	-10.6748
▁않다고	-10.6751
혁신	-10.6752
▁청와대와	-10.6755
▁늘어나는	-10.6755
▁진행해	-10.6756
하라는	-10.6757
▁항공	-10.6758
▁증가세	-10.676
▁조건을	-10.676
▁한미동맹	-10.6761
오로지	-10.6762
펀드	-10.6762
▁들에게	-10.6765
려고	-10.6766
▁포항	-10.6766
▁함께하는	-10.6766
▁대선에서	-10.6767
억원으로	-10.6768
불법	-10.6773
▁조건	-10.6773
▁제약	-10.6774
▁있겠느냐	-10.6776
에겐	-10.6776
정부와	-10.6777
▁"7	-10.6779
사의	-10.6782
▁탈	-10.6783
▁전기차	-10.6787
▁대부분의	-10.6788
▁기대할	-10.6793
▁수업	-10.6794
▁이후에도	-10.6794
▁인적	-10.6799
▁근거로	-10.6799
▁시즌을	-10.68
▁일로	-10.6802
체계	-10.6809
▁약속한	-10.681
▁비밀	-10.6811
▁확립	-10.6813
▁저도	-10.6813
▁마련한	-10.6814
▁이름	-10.6816
▁위험을	-10.6817
대강	-10.6819
▁아픔	-10.6819
▁안정적	-10.6823
▁민주당은	-10.6824
▁구글	-10.6825
▁주신	-10.6826
▁받아들이지	-10.6828
▁직장	-10.6828
▁보복	-10.6831
▁공개적으로	-10.6832
▁전투	-10.6833
▁전통	-10.6838
▁남성	-10.684
▁당은	-10.684
▁행복	-10.6841
▁이뤄졌다	-10.6842
▁미세먼지	-10.6844
대회	-10.6849
▁않다는	-10.6851
▁입학	-10.6852
비용	-10.6854
▁비율이	-10.6854
▁핵실험을	-10.6855
▁작년	-10.6856
호기	-10.6857
일에	-10.6858
통일	-10.6858
▁대응해	-10.686
▁제공하기	-10.6864
▁감안할	-10.6865
▁전체의	-10.6867
▁기회로	-10.6867
▁보험사	-10.6868
▁지역사회	-10.687
▁존	-10.6871
개인	-10.6873
▁증대	-10.6876
▁지었다	-10.6878
▁수치	-10.6878
▁"8	-10.6879
▁이슈	-10.688
▁곳은	-10.6881
▁크기	-10.6882
금리	-10.6882
남북	-10.6883
▁강원도	-10.6886
피해	-10.6887
▁표명	-10.6889
▁중심이	-10.6889
▁알리고	-10.6893
▁지키지	-10.6896
▁폐쇄	-10.6898
▁선수들을	-10.6899
일반	-10.6899
▁노동시장	-10.69
▁정착	-10.69
▁번영	-10.6902
이기도	-10.6903
▁답변	-10.6903
중국이	-10.6905
▁재발	-10.6913
▁민주주의를	-10.6914
▁검토를	-10.6915
▁민영화	-10.6916
▁충돌	-10.6917
▁자신	-10.6919
▁유일	-10.692
▁쇄신	-10.692
▁협회	-10.6923
▁구속영장을	-10.6928
▁아니라는	-10.6929
시장에서	-10.693
▁칭찬	-10.6932
▁동원해	-10.6935
▁뜨거운	-10.6936
▁구입	-10.6942
▁리그	-10.6942
▁총장이	-10.6948
▁예	-10.695
▁불안	-10.6952
▁보낼	-10.6953
▁일도	-10.6953
▁세웠다	-10.6954
▁감염	-10.6956
▁감축	-10.6956
▁약세	-10.6957
▁경우는	-10.6957
▁위해서라도	-10.6961
▁대한민국이	-10.6961
▁필요로	-10.6961
▁고문	-10.6963
▁인사가	-10.6964
▁코치는	-10.6968
▁교장은	-10.6975
▁개방	-10.6976
협의회	-10.6979
▁이씨	-10.6982
달라	-10.6983
▁고통	-10.6986
▁EU	-10.6987
▁부대	-10.699
▁상의	-10.6991
▁아이디어를	-10.6997
▁재계	-10.7
▁대화의	-10.7001
하면서도	-10.7003
▁투입	-10.7007
▁공정성	-10.7007
▁기다리고	-10.7008
▁위원장의	-10.7009
만한	-10.7016
다운	-10.7017
▁각오로	-10.702
▁기울여	-10.7021
▁남자	-10.7023
▁소신	-10.7026
▁후속	-10.7027
▁속도	-10.7028
상품	-10.7029
▁대기	-10.7031
▁배려	-10.7031
▁재판에서	-10.7032
▁경찰청	-10.7033
▁준비한	-10.7036
▁개인적으로	-10.7037
▁다르게	-10.704
▁영상을	-10.7042
▁평창	-10.7047
▁뉴욕	-10.7048
▁트렌드	-10.7049
지방	-10.7051
▁호응	-10.7056
▁방안에	-10.7058
▁나서는	-10.7058
▁새벽	-10.7059
▁대학생	-10.7059
▁정책적	-10.7059
유엔	-10.706
▁국가적	-10.7063
▁실험	-10.7066
▁우승을	-10.7067
▁늘려	-10.7068
▁전용	-10.7073
극히	-10.7079
주택	-10.7081
▁국정화	-10.7085
▁바이오	-10.7089
김정은	-10.7091
▁믿을	-10.7093
▁요구한다	-10.7095
▁초반	-10.7095
▁한일	-10.71
▁평가가	-10.7102
일자리	-10.7102
주길	-10.7103
▁확대하는	-10.7108
▁문자	-10.711
▁포스코	-10.7111
▁사항	-10.7112
▁확정된	-10.7114
▁쓰지	-10.7115
▁프로야구	-10.7117
▁단독	-10.712
▁유명	-10.7123
▁잠	-10.7124
▁성공할	-10.7125
▁연세대	-10.7132
▁바꿔야	-10.7133
▁대부분이	-10.7133
▁좋아하는	-10.7137
▁한중	-10.7138
▁뭘	-10.7138
메르스	-10.7139
▁봉사	-10.714
▁그것은	-10.7141
속	-10.7142
▁지고	-10.7142
▁가게	-10.7143
▁줘야	-10.7143
▁누구도	-10.7143
▁이상으로	-10.7146
려면	-10.7148
▁해임	-10.7149
▁소속사	-10.7151
▁신중한	-10.7152
훈	-10.7153
껏	-10.7154
▁준비해	-10.7158
주기	-10.7159
▁무대	-10.7163
▁해체	-10.7164
▁재판에	-10.7168
▁헌신	-10.7169
t	-10.7173
서로	-10.7173
당분간	-10.7173
▁기득권	-10.7174
현장	-10.7177
▁변수	-10.7181
▁저렴한	-10.7185
▁환영한다	-10.7186
▁지연	-10.7187
M	-10.7187
▁협상이	-10.7196
미국과	-10.7197
▁공모	-10.7198
▁약간	-10.72
▁즐기는	-10.7202
▁동반성장	-10.7203
▁져야	-10.7204
▁결과는	-10.7209
▁해경	-10.7216
▁석	-10.722
▁완성	-10.7221
▁판정	-10.7226
▁기간이	-10.7226
케	-10.7231
▁재난	-10.7233
▁별다른	-10.7236
▁없다면	-10.7236
▁장애	-10.724
▁홈	-10.7241
▁또다른	-10.7243
▁그리	-10.7243
▁전적으로	-10.7244
▁기분이	-10.7252
▁인력을	-10.7253
▁기간에	-10.7255
▁드릴	-10.7255
▁영향	-10.7256
▁지시한	-10.7258
▁행위가	-10.7259
▁자살	-10.726
▁중요	-10.726
▁제도가	-10.7262
▁세계적으로	-10.7264
▁2020	-10.7265
▁외환은행	-10.7267
▁출석해	-10.7267
하긴	-10.7269
▁자문	-10.7271
▁한국인	-10.7272
▁노인	-10.7275
됐을	-10.7276
국민들이	-10.7277
▁포함돼	-10.7278
▁유사한	-10.7278
▁물량	-10.7279
▁표현했다	-10.7284
▁차별화	-10.7284
▁활동이	-10.7285
▁실시간	-10.7285
▁미치지	-10.7287
군의	-10.729
▁일각에서	-10.7295
▁눈을	-10.7296
▁전체적으로	-10.7297
▁제기된	-10.7301
▁일어날	-10.7301
구나	-10.7304
▁80%	-10.7304
골	-10.7304
새누리당이	-10.7306
▁겪는	-10.7308
▁팬	-10.7308
▁선거에서	-10.7309
▁스페인	-10.7312
▁질의에	-10.7313
▁어린이	-10.7313
▁아내	-10.7316
께서	-10.7316
▁가격에	-10.7319
▁행사가	-10.732
▁이래	-10.7322
▁발전할	-10.7324
있다	-10.7326
▁조율	-10.7326
▁하던	-10.733
원래	-10.733
추가	-10.7331
▁격려했다	-10.7334
이나마	-10.7334
▁바가	-10.7338
▁재산을	-10.734
나도	-10.734
▁편하게	-10.734
▁영향은	-10.7341
▁평가한다	-10.7343
색	-10.7343
▁글에서	-10.7344
재정	-10.7344
▁실	-10.7346
사는	-10.7347
▁발견	-10.735
방송	-10.735
▁세상	-10.7351
▁심리로	-10.7351
▁진정성	-10.7352
▁발부	-10.7352
▁잡는	-10.7354
이므로	-10.7354
협력	-10.7354
아무리	-10.7357
▁들어간	-10.7358
담당	-10.736
▁국정감사	-10.7364
년에는	-10.7364
시에	-10.7366
▁한국은행	-10.7369
▁정치적으로	-10.7369
▁펼칠	-10.7372
▁주문	-10.7372
▁원내대표도	-10.7378
옥	-10.7378
▁예상보다	-10.738
보호	-10.7381
▁청와대에	-10.7384
▁감찰	-10.7385
▁문화가	-10.7386
▁사안에	-10.7387
저축은행	-10.7389
▁조사할	-10.7389
▁다를	-10.739
첫	-10.7394
▁단축	-10.7394
▁확보하고	-10.7394
▁않았나	-10.7395
▁유가	-10.7396
▁제품의	-10.7397
▁아동	-10.7401
령	-10.7401
▁공판에서	-10.7402
▁막는	-10.7404
▁규명	-10.7405
▁안전하게	-10.7406
▁CCTV	-10.7409
▁해킹	-10.741
▁손실	-10.7411
▁일어난	-10.7411
▁투자하는	-10.7416
▁이른	-10.7419
율	-10.7419
▁했으면	-10.742
▁촬영	-10.742
위원장은	-10.7426
▁중국에서	-10.7431
▁국민들	-10.7431
▁증가한	-10.7431
▁골	-10.7433
▁나의	-10.7441
▁표시	-10.7442
▁받는다	-10.7442
▁인선	-10.7444
▁맛	-10.7444
▁양질	-10.7445
▁국회법	-10.745
▁축사	-10.7454
민주당	-10.7456
▁알렸다	-10.7456
▁"2015	-10.746
▁증가했다	-10.7462
▁발목	-10.7469
▁박차	-10.7469
▁ICT	-10.7469
자금	-10.747
▁진정	-10.7471
▁강행	-10.7472
▁항공기	-10.7473
▁고맙다	-10.7473
▁열정	-10.7477
탄핵	-10.7487
핵	-10.749
▁고객과	-10.749
액	-10.7493
▁처음부터	-10.7495
▁포	-10.7498
▁똑같은	-10.7498
▁역사교과서	-10.75
▁연합	-10.7501
하신	-10.7508
규제	-10.7508
▁듯한	-10.7509
▁문의	-10.7512
▁부탁한다	-10.7516
입	-10.7517
▁감정	-10.7517
오늘은	-10.7518
▁입장에	-10.7519
▁얻었다	-10.7519
▁수행할	-10.7525
▁힘으로	-10.7527
▁가족과	-10.753
▁수학	-10.7536
▁염려	-10.7537
▁더이상	-10.7537
▁위헌	-10.7538
됨에	-10.7542
▁인지도	-10.7545
▁형사합의	-10.7548
대비	-10.7549
▁점유율	-10.7553
▁전세계	-10.7557
▁찾아야	-10.7561
▁정보가	-10.7561
▁일찍	-10.7563
▁특징	-10.7563
▁폭	-10.7563
▁경북	-10.7568
▁소프트웨어	-10.7569
시켜야	-10.7572
▁종목	-10.7573
▁강원	-10.7578
▁휴식	-10.758
▁국가를	-10.7581
▁오면	-10.7584
▁황교안	-10.7584
▁국정운영	-10.7587
▁공기	-10.7593
도시	-10.7597
▁확대에	-10.7598
▁범위를	-10.7599
안을	-10.7602
▁안타까운	-10.7605
▁처리할	-10.7606
차례	-10.7607
▁성원	-10.7615
▁시급한	-10.7617
작	-10.7619
▁컨설팅	-10.7624
▁모두에게	-10.7625
▁미래에	-10.7636
▁살아	-10.7639
▁키워	-10.7639
▁치열한	-10.7642
▁사실에	-10.7643
▁홈페이지	-10.7646
▁해왔다	-10.7646
▁부분에서	-10.7648
▁전원	-10.7648
▁파괴	-10.7649
노동	-10.765
▁노력에	-10.7653
구체적인	-10.7653
▁악화	-10.7654
▁고교	-10.7656
▁던졌다	-10.7656
▁이틀	-10.7658
▁구성해	-10.7659
▁지점	-10.7659
▁건립	-10.7662
▁거라고	-10.7663
완	-10.7665
▁지속되고	-10.7666
▁분들	-10.7666
▁싶지	-10.7666
▁지침	-10.7669
▁대답	-10.7671
▁올리는	-10.7671
▁명절	-10.7672
▁했습니다	-10.7674
▁한류	-10.7678
▁기억이	-10.7679
▁들어가는	-10.7681
▁방안도	-10.7682
▁차단	-10.7683
연구	-10.7683
▁전체를	-10.7683
▁돌	-10.7685
민주당은	-10.769
▁국회의장	-10.7691
▁취지에	-10.7691
▁제품이	-10.7692
▁될지	-10.7693
▁빅데이터	-10.7694
▁지휘	-10.7694
▁눈이	-10.7695
▁현역	-10.7696
스타	-10.7696
▁언론과	-10.7698
공무원	-10.7699
▁이들을	-10.7703
▁국민은행	-10.7709
▁신뢰가	-10.7712
미래	-10.7712
▁전체가	-10.7712
▁하거나	-10.7716
▁단계에서	-10.7716
▁이번에는	-10.772
그래도	-10.7721
▁내년에	-10.7722
▁제시	-10.7723
▁행태	-10.7726
▁도중	-10.7726
▁호주	-10.7728
▁수습	-10.7729
▁마을	-10.7729
▁증진	-10.773
▁신설	-10.7731
▁군은	-10.7734
▁수립	-10.7735
▁회장을	-10.7736
▁협력이	-10.7737
▁반영한	-10.7737
▁고객을	-10.7747
▁붕괴	-10.775
▁국감	-10.7753
▁표한다	-10.7754
▁입지	-10.7754
▁주주	-10.7757
▁어디에	-10.7757
업	-10.7758
▁토론회	-10.776
▁판사	-10.7761
공사	-10.7761
▁자신했다	-10.7762
▁혁신적인	-10.7763
▁점검하고	-10.7765
▁끝나고	-10.7768
▁호	-10.7769
▁입시	-10.7773
▁무거운	-10.7774
▁떨어질	-10.7781
▁임직원	-10.7782
▁되	-10.7782
▁이념	-10.7784
▁공정	-10.7785
정당	-10.7787
▁암	-10.7787
▁세력	-10.7788
▁"19	-10.7788
법에	-10.7789
▁공항	-10.7791
▁전경련	-10.7791
▁실장	-10.7795
모바일	-10.7796
▁쌀	-10.7798
▁복구	-10.7801
▁봐	-10.7801
▁싸움	-10.7806
▁사무실	-10.7807
수출	-10.7809
▁낡은	-10.7809
▁공론화	-10.7812
해줄	-10.7813
▁공간	-10.7814
헌재	-10.7821
▁권력을	-10.7825
▁폐기	-10.7826
제도를	-10.7829
▁성공한	-10.7835
▁운영하고	-10.7841
▁첨단	-10.7841
▁군대	-10.7842
▁합의에	-10.7843
▁쪽	-10.7843
▁일자리가	-10.7844
이었고	-10.7844
선수	-10.7844
화를	-10.7848
▁비박계	-10.7849
▁봉사활동	-10.7849
부산	-10.785
▁펼쳐	-10.785
브	-10.7851
청년	-10.7851
▁정했다	-10.7855
▁구성된	-10.7859
▁비교	-10.7859
▁보내고	-10.7865
▁배제할	-10.7865
▁가구	-10.7866
삼성전자	-10.7867
커	-10.7874
▁낮다	-10.7875
정권	-10.7877
▁안전성	-10.7878
▁위협하는	-10.7878
재단	-10.788
▁당국이	-10.7884
▁뿐이다	-10.7889
▁책임지는	-10.7892
▁위안화	-10.7896
▁농협	-10.7899
▁바람이	-10.7905
▁홈페이지를	-10.7905
▁의결	-10.7907
▁준다	-10.7907
▁자회사	-10.7908
▁상관없이	-10.7911
▁리더십을	-10.7912
▁농산물	-10.7916
▁강의	-10.7916
▁사항을	-10.7917
▁요건	-10.7917
▁오직	-10.7927
▁오지	-10.793
▁했으나	-10.7938
생산	-10.794
▁의무가	-10.7941
▁출전	-10.7945
등급	-10.7946
▁하려면	-10.7947
▁법원은	-10.7947
▁점포	-10.7947
▁환경에	-10.7949
▁민주화	-10.7949
▁지수	-10.795
▁판단한	-10.7951
▁예술	-10.7954
▁확인하는	-10.7961
▁박원순	-10.7961
전국	-10.7965
▁"2014	-10.7968
▁사무총장	-10.7971
▁영광	-10.7971
▁원활	-10.7972
▁저성장	-10.7974
▁있냐	-10.7974
▁경찰에서	-10.7974
▁적어도	-10.7983
PC	-10.7984
익	-10.7986
▁연설에서	-10.7991
▁제한적	-10.7992
▁산은	-10.7992
▁인기가	-10.7995
욱	-10.7996
버	-10.7998
▁90%	-10.7999
▁이상을	-10.7999
▁기구	-10.8001
▁모색	-10.8003
▁복원	-10.8003
▁부과	-10.8003
▁양국이	-10.8007
▁전력을	-10.8009
▁선제적으로	-10.8014
▁원내대책회의에서	-10.802
▁홍콩	-10.802
▁측과	-10.802
▁운영에	-10.8021
▁접촉	-10.8021
▁변함	-10.8022
▁노동개혁	-10.8023
▁주재한	-10.8025
활동을	-10.8028
▁심지어	-10.8029
▁그것	-10.8031
▁옳지	-10.8031
▁일종	-10.8031
▁정씨는	-10.8031
▁세부	-10.8038
▁애정	-10.804
▁토대	-10.8042
하라고	-10.8042
▁방식이	-10.8044
▁시민의	-10.8044
▁사정	-10.8045
▁알아야	-10.8046
인터넷	-10.8046
▁대한항공	-10.8046
▁자국	-10.8046
▁팀의	-10.8057
▁변동성이	-10.8058
▁못하다	-10.8062
▁롯데그룹	-10.8063
▁어깨	-10.8063
▁전망이	-10.8063
▁세계에서	-10.807
▁배터리	-10.8072
목	-10.8073
▁보고서는	-10.8073
▁수단	-10.8076
▁선수들은	-10.8076
기로	-10.8077
참	-10.8077
▁위대한	-10.8078
▁시행령	-10.8079
자기	-10.8084
▁묻고	-10.8086
▁강화해야	-10.8087
▁경제성장	-10.8087
▁찾아가	-10.8087
▁협의가	-10.8091
▁조사하고	-10.8094
▁납득할	-10.8095
▁급여	-10.8095
▁필요는	-10.8098
▁내게	-10.8098
시께	-10.81
▁미국에서	-10.81
▁자동	-10.81
▁만나서	-10.8101
▁꾸준한	-10.8102
▁기쁘게	-10.8105
개국	-10.8108
▁좋고	-10.8109
▁끝으로	-10.8111
▁변동성	-10.8112
▁연구를	-10.8115
▁사죄	-10.8116
▁시스템이	-10.8116
지구	-10.8117
▁땅	-10.8117
▁키우는	-10.8117
▁특별법	-10.8122
간의	-10.8122
억원에	-10.8124
▁스타	-10.8126
▁걱정을	-10.8127
▁누구보다	-10.8131
▁담아	-10.8131
▁무효	-10.8132
▁명품	-10.8136
▁이끄는	-10.8138
."-	-10.8139
▁들어갔다	-10.8142
▁인간	-10.8144
▁지닌	-10.8152
▁방해	-10.8153
시장의	-10.8153
하진	-10.8153
▁상환	-10.8154
▁판단하고	-10.8158
걸	-10.8158
▁3%	-10.816
생활	-10.816
▁몫	-10.8161
▁막고	-10.8163
▁육군	-10.8172
단지	-10.8172
▁발생하고	-10.8178
▁보통	-10.8179
▁그리스	-10.818
▁대북제재	-10.8181
▁힘입어	-10.8182
▁불가능한	-10.8182
▁은행의	-10.8187
▁성장과	-10.819
▁삼	-10.8191
간사인	-10.8193
▁제출했다	-10.8197
▁방법은	-10.8197
▁불안감	-10.8198
▁한해	-10.8201
▁사정이	-10.8202
▁꼼꼼히	-10.8205
▁도입을	-10.8205
▁버	-10.8206
▁수익률	-10.8208
민간	-10.821
▁지지율이	-10.8211
▁모습으로	-10.8211
▁보탬이	-10.8211
▁조국	-10.8213
북핵	-10.8213
▁카메라	-10.8215
▁명단	-10.8217
▁헌법재판소	-10.8222
▁포함된	-10.8222
▁사인	-10.8226
▁거짓말	-10.8229
▁여당이	-10.823
▁가기	-10.8233
▁나지	-10.8233
한국이	-10.8233
▁아이가	-10.8234
▁벌이고	-10.8235
▁강화하겠다	-10.8238
▁장기적인	-10.8238
▁후보에	-10.8241
려는	-10.8243
년째	-10.8246
▁회복을	-10.8247
▁부적절한	-10.8247
▁정지	-10.8248
▁지원에	-10.8252
▁채권단	-10.8253
12	-10.8256
▁진실	-10.8257
▁돕는	-10.8257
▁야구를	-10.8259
▁국민의당이	-10.8261
▁결론	-10.8263
▁가족이	-10.8265
▁대답했다	-10.8266
하겠다고	-10.8269
▁김씨	-10.8269
▁중구	-10.827
▁세력이	-10.8271
▁진전	-10.8272
▁놀랐다	-10.8273
▁회사에	-10.8276
숙	-10.8276
▁자칫	-10.828
▁원유	-10.828
이지	-10.8283
▁속도가	-10.8283
▁공동으로	-10.8284
▁소송에서	-10.8285
▁자유롭게	-10.8286
▁손실을	-10.8293
▁위주의	-10.8293
런	-10.8294
▁제목의	-10.8295
▁나가고	-10.8297
▁환경에서	-10.8299
▁한숨	-10.8299
대가	-10.83
▁대통령께서	-10.83
▁약자	-10.8302
▁투명하게	-10.8308
▁수시로	-10.8309
한국과	-10.8309
▁엔진	-10.8317
▁포함	-10.8318
사를	-10.8318
팀이	-10.8319
▁횡령	-10.832
▁일일이	-10.8322
▁아프리카	-10.8327
▁무엇이	-10.8327
▁며칠	-10.8327
▁소비자들에게	-10.8329
저도	-10.833
▁수출이	-10.8333
▁다행	-10.8333
▁일정이	-10.8339
▁창출을	-10.834
▁자본시장	-10.8341
▁무시하고	-10.8341
▁딱	-10.8342
아이	-10.8343
▁동일한	-10.8343
▁선거운동	-10.8343
▁설비	-10.8345
▁혁명	-10.8345
▁인정하지	-10.8346
▁운동을	-10.8347
▁내용과	-10.8351
▁위치	-10.8351
▁밝히며	-10.8352
▁재고	-10.8353
▁달성할	-10.8353
▁곳으로	-10.8354
▁야당과	-10.8354
▁여론이	-10.8355
▁장면	-10.8357
상의	-10.8363
▁검색	-10.837
▁처분을	-10.837
▁고려해야	-10.837
영업	-10.8372
▁대응이	-10.8376
▁말했고	-10.8377
▁다음에	-10.8377
▁나와야	-10.8377
▁있었을	-10.8379
릴	-10.838
▁구축해	-10.8385
개를	-10.8387
▁대법관	-10.8388
▁공단	-10.8388
▁고의	-10.8391
▁대만	-10.8393
▁효율적으로	-10.8394
▁법이	-10.8394
▁면접	-10.8395
▁고인	-10.8397
▁수단을	-10.8398
▁선거구	-10.84
▁등도	-10.8403
▁추미애	-10.8403
▁개인적인	-10.8407
▁없었고	-10.841
▁지적한	-10.8413
▁산하	-10.8413
▁거래를	-10.8414
까지는	-10.8415
▁전망된다	-10.8415
▁사랑하는	-10.8416
▁조금이라	-10.8419
▁시작하는	-10.8419
▁피부	-10.842
창업	-10.8421
▁진상규명	-10.8421
▁침체	-10.8423
▁매매	-10.8423
▁"2012	-10.8429
▁매도	-10.843
물론	-10.8435
▁같은데	-10.844
▁나아갈	-10.8441
자로	-10.8442
▁피할	-10.8445
▁투자자들이	-10.8446
▁개발해	-10.8447
줘야	-10.8447
▁적정	-10.8454
▁이슈가	-10.8456
▁소집	-10.8456
▁규제가	-10.8458
▁발전과	-10.8461
▁선대위	-10.8464
▁아니기	-10.8465
전혀	-10.8466
부장은	-10.8466
비를	-10.8469
▁함	-10.8472
▁세수	-10.8477
음	-10.8478
▁듣는	-10.8479
▁되느냐	-10.8479
▁백화점	-10.8479
▁해결해	-10.8482
▁논문	-10.8484
▁패배	-10.8484
▁지켜보고	-10.8484
▁달라질	-10.8484
▁민감한	-10.8485
▁개시	-10.8487
과학	-10.8488
▁학원	-10.8492
테	-10.8497
▁90	-10.8497
▁불공정	-10.8498
곧	-10.8498
책	-10.8501
▁즐거운	-10.8503
선수들이	-10.8506
▁표결	-10.8507
▁평양	-10.8509
▁견제	-10.851
▁마련하는	-10.8511
▁기업은	-10.8512
▁시대가	-10.8515
▁주목	-10.8517
▁주거	-10.8519
▁개선될	-10.8521
되거나	-10.8521
지에	-10.8521
관광	-10.8525
▁안전과	-10.8525
▁강조하고	-10.8526
▁추진해야	-10.8529
▁차세대	-10.8535
▁감사원	-10.8535
▁순위	-10.8537
담	-10.8538
알	-10.8541
▁회장과	-10.8543
▁중소기업의	-10.8545
▁선택할	-10.8545
▁공무원연금	-10.8547
▁바꾸고	-10.8557
▁소유	-10.8557
▁직장인	-10.8558
▁보도가	-10.8561
▁허가	-10.8561
▁운행	-10.8567
▁시작해	-10.8568
▁전문가는	-10.8569
▁순방	-10.857
▁인사말	-10.857
▁5%	-10.8572
▁앞장서	-10.8573
▁해줄	-10.8575
▁취해	-10.8576
▁본질	-10.8577
▁혜택	-10.8577
▁장관을	-10.8579
▁판단한다	-10.8582
영화	-10.8583
▁근본	-10.8585
▁출신의	-10.8588
▁판결이	-10.8588
▁계신	-10.8588
▁기대감이	-10.859
▁위원회	-10.8591
▁공유하고	-10.8592
▁격	-10.8596
▁강화에	-10.8598
보니	-10.8599
▁제정	-10.8601
▁있었다는	-10.8601
▁수리	-10.8601
▁맥주	-10.8605
▁훼손	-10.8609
감독	-10.861
▁투자에	-10.8611
기업이	-10.8611
전문	-10.8611
▁다음날	-10.8613
▁최상의	-10.8616
▁합니다	-10.8617
▁제외하고	-10.8621
▁신당	-10.8624
▁동반	-10.8627
명에	-10.8628
▁회의에	-10.8628
▁인류	-10.8631
▁체력	-10.8635
조선	-10.8635
▁관련이	-10.8638
▁특성상	-10.8639
▁증거인멸	-10.8639
▁비판이	-10.8643
▁인원	-10.8644
▁GS	-10.8645
▁정부서울청사	-10.8648
▁담당하는	-10.8649
▁협조해	-10.865
▁라인	-10.8651
누가	-10.8653
향	-10.8654
연대	-10.8654
▁민정수석	-10.8655
계약	-10.8657
▁국익	-10.8659
▁위원	-10.8659
▁부사장	-10.866
▁공시	-10.8662
▁증언	-10.8663
▁민생을	-10.8664
▁맞은	-10.8665
▁받	-10.8665
▁최적의	-10.8667
▁날이	-10.8672
▁물론이고	-10.8672
▁격려	-10.8674
▁CBS	-10.8676
▁담당자는	-10.8677
▁먹거리	-10.8678
분야	-10.868
▁성명에서	-10.868
대통령은	-10.8681
▁해당하는	-10.8681
▁청	-10.8681
▁압력을	-10.8683
▁넷마블	-10.8684
처리	-10.8689
▁거친	-10.8691
▁제거	-10.8692
▁누릴	-10.8695
기구	-10.8699
▁독점	-10.8699
▁지혜를	-10.8699
▁자리매김	-10.8703
▁게이트	-10.8705
▁벤처	-10.8706
▁가져올	-10.8707
▁면담	-10.8709
겠느냐	-10.8709
▁늘리고	-10.8712
▁정치에	-10.8713
▁반영된	-10.8715
▁저금리	-10.8716
▁나타난	-10.8717
기관	-10.8719
저희	-10.8719
▁항소심	-10.8722
시키기	-10.8723
▁진로	-10.8723
대를	-10.8723
▁중에서	-10.8723
기준	-10.8726
세기	-10.8726
전체	-10.8732
▁얻는	-10.8733
▁거다	-10.8734
▁역할에	-10.8734
▁비행	-10.8735
▁드는	-10.8735
하되	-10.8735
▁치	-10.8739
▁이정현	-10.874
▁계획은	-10.874
▁대결	-10.8741
▁성명서	-10.8741
▁국민들께	-10.8742
▁수단으로	-10.8743
▁골을	-10.8743
▁사이의	-10.8746
▁주변에	-10.8747
▁핀테크	-10.875
▁희생자	-10.8751
▁공감대를	-10.8754
▁고민이	-10.8754
없는	-10.8755
▁작업이	-10.8756
▁당에서	-10.8759
▁안정화	-10.876
▁지나	-10.876
▁발상	-10.8761
헌	-10.8762
▁불편한	-10.8763
▁공문	-10.8763
▁밝히기도	-10.8763
성장	-10.8766
심사	-10.8766
▁이름으로	-10.8769
▁자부심을	-10.877
개헌	-10.8771
▁법안이	-10.8772
▁직	-10.8775
▁있었는지	-10.8777
▁커졌다	-10.8777
▁가이드라인	-10.8779
▁보겠다	-10.8781
자회담	-10.8782
▁하나도	-10.8784
▁인용	-10.8786
▁사표	-10.8789
▁대응하기	-10.8789
▁도널드	-10.8792
▁예비	-10.8794
▁아이템	-10.8795
▁특검팀	-10.8795
▁인도네시아	-10.8797
당초	-10.8798
▁대행	-10.8798
▁돌아갈	-10.8801
▁수요를	-10.8803
▁대변인도	-10.8803
▁결의안	-10.8806
처	-10.8806
▁모멘텀	-10.8807
▁당사에서	-10.8807
▁좌파	-10.8808
▁분명	-10.881
▁업체들	-10.8815
해주길	-10.8816
▁성장하는	-10.8816
▁관리하는	-10.8816
▁신용	-10.8816
▁앱	-10.8817
▁하겠다고	-10.882
▁노동신문	-10.8821
▁개선해	-10.8821
▁주길	-10.8821
▁해결에	-10.8823
▁있어도	-10.883
▁강점	-10.8833
▁FA	-10.8834
▁형식	-10.8835
▁이적	-10.8835
▁역사의	-10.8838
원을	-10.8838
하루	-10.8839
▁명백히	-10.8839
▁다음은	-10.884
▁물류	-10.8842
▁새해	-10.8843
력을	-10.8843
▁끝나면	-10.8847
▁진행했다	-10.8857
분기에	-10.8857
▁혜택이	-10.8858
▁2%	-10.8859
▁어렵다는	-10.886
▁근절	-10.8861
▁이어서	-10.8862
언론	-10.8862
▁벌어진	-10.8863
▁작품을	-10.8864
▁정우택	-10.8864
▁부서	-10.8865
▁문자메시지	-10.8865
▁계산	-10.8866
▁선관위	-10.8868
▁출신인	-10.8869
e	-10.887
▁신분	-10.8875
▁현대증권	-10.8879
15	-10.8879
▁사용해	-10.888
▁거냐	-10.888
구단	-10.8882
▁촉진	-10.8883
▁안건	-10.8884
▁살리기	-10.8886
▁세우고	-10.8888
▁부위원장은	-10.889
▁예금	-10.889
작년	-10.8891
▁활력을	-10.8897
▁깜짝	-10.8904
▁어렵지만	-10.8904
▁결과로	-10.8907
▁건넸다	-10.8907
군이	-10.8916
▁주최	-10.8916
▁인건비	-10.8919
▁있으므로	-10.8919
▁뛸	-10.8922
▁인정하는	-10.8924
끼리	-10.8925
소득	-10.8925
▁핵무기	-10.8926
▁벌금	-10.8926
▁누군가	-10.8927
▁쪽에서	-10.8927
혁	-10.8933
▁있음에도	-10.8935
▁실종자	-10.8935
▁전화통화에서	-10.8939
▁감	-10.8941
▁시너지를	-10.8941
원전	-10.8943
▁거론하며	-10.8944
▁직원들에게	-10.8947
▁경우에	-10.8948
▁맞지만	-10.8949
▁화가	-10.895
▁임무를	-10.895
▁발휘할	-10.8952
▁금융감독원	-10.8955
▁정황	-10.8957
▁진지하게	-10.8958
▁적극적	-10.8963
▁접수	-10.8963
▁컸다	-10.8967
▁민족	-10.897
▁느낌을	-10.8971
▁보육	-10.8972
▁저질렀다	-10.8973
▁선수들	-10.8974
▁수집	-10.8976
▁않았다는	-10.8978
▁방송을	-10.8979
남은	-10.898
IT	-10.898
▁외쳤다	-10.8981
▁이탈리아	-10.8982
주요	-10.8982
▁업데이트	-10.8982
▁잡은	-10.8982
▁강연	-10.8983
▁최씨가	-10.8984
▁언어	-10.8986
▁가급적	-10.8987
▁규정하고	-10.8989
장관	-10.8993
▁확신	-10.8994
▁무소속	-10.8995
▁공백	-10.8998
자산	-10.9006
▁전파	-10.9018
▁올랐다	-10.9027
▁없음을	-10.9027
체제	-10.903
▁등판	-10.9033
개성공단	-10.9036
▁경제정책	-10.9039
▁국회와	-10.9042
▁청년들	-10.9043
▁기술과	-10.9043
▁정부도	-10.9043
▁동결	-10.9044
▁"12	-10.9045
▁가능	-10.9053
▁관여	-10.9056
▁확인된	-10.9059
▁중국은	-10.9059
▁경제부총리	-10.9061
▁열기	-10.9063
▁기사를	-10.9064
▁꿈과	-10.9067
▁집에서	-10.9071
▁후보자에	-10.9077
▁계속될	-10.9077
피고인	-10.9078
▁앉아	-10.908
서비스를	-10.9082
직접	-10.9082
▁건지	-10.9083
▁미군	-10.909
▁그를	-10.9091
▁프랜차이즈	-10.9094
▁통계	-10.9095
▁고령화	-10.9096
▁국민들을	-10.9101
▁이자	-10.9103
▁교육감	-10.9106
▁분석해	-10.9107
▁행태를	-10.9108
▁그들의	-10.9116
칠	-10.9121
▁의사결정	-10.9122
시민	-10.9127
▁흐름이	-10.9128
▁해외에서	-10.9131
▁성장에	-10.9132
러시아	-10.9135
▁뗐다	-10.9137
▁것이었다	-10.914
량	-10.9141
▁말하기	-10.9147
▁수렴	-10.9148
▁건전성	-10.9148
▁희망이	-10.9149
▁탓에	-10.9153
▁정기	-10.9154
▁기울이고	-10.9157
19	-10.9159
▁합동	-10.916
▁미래의	-10.9163
▁취재진의	-10.9164
▁용기	-10.9164
어린	-10.9164
웅	-10.9165
대상	-10.9166
▁기분	-10.9166
▁조달	-10.9166
▁이뤄	-10.9166
▁고급	-10.9168
▁분야를	-10.9169
경찰이	-10.917
▁정도다	-10.9173
절차	-10.9173
▁절대로	-10.9176
▁승소	-10.9176
▁이란	-10.9179
▁결론이	-10.9179
학생	-10.918
시장이	-10.918
▁교육감은	-10.9182
▁찾지	-10.9186
▁전략이	-10.9187
▁국세청	-10.9187
곡	-10.9187
유통	-10.9189
▁신제품	-10.9192
▁기념	-10.9196
그렇다	-10.9196
▁위기가	-10.9197
▁효과적인	-10.9197
▁치고	-10.9198
▁즉답	-10.9198
▁소방	-10.92
▁준비할	-10.9201
▁P	-10.9201
▁강하다	-10.9203
▁IBK	-10.9204
명으로	-10.9206
▁지켜	-10.9207
패	-10.9209
▁사의	-10.9211
▁업계의	-10.9211
▁배제	-10.922
▁낫다	-10.9222
▁야당은	-10.9225
▁가계	-10.9228
▁만들어진	-10.9228
▁보증	-10.9231
▁고객들	-10.9231
▁박정희	-10.9233
▁관련해서	-10.9236
대의	-10.9237
▁60%	-10.9238
▁소설	-10.9238
▁항의	-10.9239
서를	-10.9242
▁남지	-10.9243
▁국	-10.9243
▁증가하는	-10.9244
▁갖춰	-10.9245
젊은	-10.9246
▁맞고	-10.9246
▁전자	-10.9247
▁미래가	-10.9249
▁성남	-10.9251
대책	-10.9252
▁남긴	-10.9254
만으로도	-10.9254
문제가	-10.9254
▁하반기에	-10.9254
▁유입	-10.9255
▁구조적	-10.9255
▁부인하고	-10.9257
▁효율적인	-10.9259
니다	-10.9259
▁언제든지	-10.9261
▁이산가족	-10.9262
▁남편	-10.9262
▁논의하고	-10.9264
▁당과	-10.9264
▁정치의	-10.9269
▁동참	-10.9271
▁몇몇	-10.9276
▁식당	-10.9277
효과적으로	-10.928
전에서	-10.9282
▁숫자	-10.9285
▁정세	-10.9286
했어야	-10.9286
▁개발한	-10.9287
의료	-10.9288
▁현장의	-10.9288
▁들어와	-10.929
▁구성원	-10.9292
▁돌아가	-10.9296
▁얘기는	-10.9297
전쟁	-10.9297
▁완벽한	-10.9298
▁F	-10.9299
▁얼마든지	-10.9299
급격히	-10.9301
▁입찰	-10.9305
▁한전	-10.9306
▁H	-10.9306
▁거둘	-10.931
▁유가족	-10.931
▁위해서도	-10.9311
▁출장	-10.9312
▁원한다	-10.9312
▁보고서에서	-10.9314
대형	-10.9316
▁품목	-10.9317
11	-10.9318
▁있어서는	-10.9318
포럼	-10.9321
▁모르겠지만	-10.9322
월에는	-10.9323
▁결과적으로	-10.9324
▁진상을	-10.9324
▁대우	-10.9326
▁개의	-10.9327
능력	-10.9329
▁정치인	-10.9329
▁서버	-10.933
▁실시할	-10.933
▁사고로	-10.9333
피해자	-10.9333
▁전문가들	-10.9333
▁집중하고	-10.9338
▁국민에	-10.9339
됐는데	-10.9339
▁선배	-10.9341
▁끝	-10.9346
▁이어진	-10.9347
▁대다수	-10.9347
▁교역	-10.9348
광주	-10.9353
▁어린이집	-10.9354
▁운영할	-10.9356
▁향상을	-10.9357
베	-10.9358
▁노력하는	-10.9358
운동	-10.936
▁강조	-10.9362
▁골프	-10.9364
연합	-10.9366
▁승진	-10.9367
▁귀국	-10.9372
해야한다	-10.9374
▁보조금	-10.9375
▁구조조정을	-10.9375
▁합참	-10.9375
▁처벌이	-10.9376
▁노조는	-10.9377
▁룰	-10.9377
▁됐을	-10.9378
▁뛰어	-10.9381
▁드리고	-10.9383
▁고려한	-10.9389
▁지는	-10.9389
▁나에게	-10.9393
▁주제로	-10.9393
▁부검	-10.9394
▁불출마	-10.9395
▁파악해	-10.9395
▁잃은	-10.9397
▁움직임이	-10.9397
▁복잡한	-10.94
▁아들이	-10.9402
▁아무도	-10.9402
▁확보한	-10.9403
▁역	-10.9408
▁권한대행	-10.9408
▁임대	-10.9408
▁기준에	-10.9409
▁발효	-10.9409
▁야당을	-10.9411
▁누구	-10.9412
▁일환으로	-10.9413
▁현직	-10.9419
▁학교에	-10.942
▁분석을	-10.9422
▁예고했다	-10.9424
▁카카오	-10.9426
▁행동으로	-10.9426
훈련	-10.9427
▁논의하는	-10.9428
호남	-10.9431
▁버리고	-10.9434
▁의혹과	-10.9435
▁박수현	-10.9437
다보니	-10.9438
▁발견된	-10.944
▁서울중앙지검	-10.9441
▁해제	-10.9443
▁태블릿	-10.9448
▁처한	-10.945
▁판매가	-10.9451
법인	-10.9452
▁투자할	-10.9452
일에는	-10.9456
▁알려	-10.9457
▁임시	-10.946
▁충분하다	-10.946
▁연내	-10.9464
▁T	-10.9465
제품	-10.9465
여명	-10.9466
▁개혁의	-10.9466
▁관리가	-10.9468
▁밝은	-10.9469
▁빈	-10.9471
▁여성의	-10.9472
여개	-10.9473
▁아픈	-10.9477
▁컴퓨터	-10.9477
맨	-10.948
▁낮아	-10.9481
▁받겠다	-10.9482
40	-10.9483
온라인	-10.9488
▁성적이	-10.9492
▁뛰는	-10.9496
▁상위	-10.9498
▁됐는데	-10.9502
▁사실이지만	-10.9502
▁디	-10.9503
▁센터	-10.9507
▁선전	-10.9507
▁일본이	-10.9507
▁마케팅을	-10.9509
▁바람에	-10.9512
차피	-10.9513
▁가족의	-10.9513
▁납품	-10.9522
▁확보해	-10.9523
▁사과했다	-10.9523
▁그건	-10.9526
줬다	-10.9526
▁공기업	-10.9527
▁느낌이	-10.9529
▁단호하게	-10.9529
▁줄었다	-10.9534
▁소개	-10.9537
▁끝났다	-10.9538
▁김종인	-10.9538
▁후에도	-10.9539
▁보건복지부	-10.9539
▁논리	-10.954
▁줄이기	-10.9543
되어야	-10.9544
▁바뀔	-10.9545
▁여기서	-10.9546
▁휴가	-10.9547
▁기원한다	-10.9549
▁시정	-10.9552
▁채무	-10.9556
▁이르는	-10.9556
매년	-10.9558
▁성격이	-10.9562
▁개정을	-10.9564
▁극복할	-10.9566
▁나오기	-10.9567
▁제품에	-10.9567
▁심한	-10.9567
▁사이트	-10.9568
▁세계에	-10.9568
▁책임지고	-10.957
▁지속가능한	-10.9574
▁기기	-10.9575
총선	-10.9575
▁업그레이드	-10.9576
▁배경에	-10.958
출	-10.9581
라면서도	-10.9581
▁왼쪽	-10.9587
▁거래가	-10.9587
▁아니겠느냐	-10.9587
▁주체	-10.9588
▁피해자들	-10.9588
▁사람과	-10.9589
▁보여준다	-10.9593
▁금융위원장	-10.9596
▁각별	-10.9598
수가	-10.96
▁양측	-10.96
▁관계없이	-10.9602
▁팬들에게	-10.9602
▁후배	-10.9603
▁늦게	-10.9604
▁일어나	-10.9605
술	-10.9607
▁담화	-10.9607
▁사찰	-10.9608
▁쪽에	-10.9609
▁다니는	-10.9611
▁의식	-10.9612
▁구조개혁	-10.9616
▁위원장을	-10.9619
▁KDB	-10.9619
▁나름대로	-10.9621
록	-10.9624
▁충남	-10.9624
▁특검보	-10.9624
돌	-10.9625
▁회상했다	-10.9625
▁공개할	-10.9626
채권	-10.963
결	-10.9633
좀	-10.9633
▁무한	-10.9634
정확한	-10.9635
▁무책임한	-10.9636
▁선진	-10.9636
▁축구를	-10.9639
특위	-10.9639
▁150	-10.9639
그때	-10.9641
피고인이	-10.9642
▁대거	-10.9643
▁보편적	-10.9649
▁통합진보당	-10.9651
▁선순환	-10.9652
허	-10.9652
▁앞장서겠다	-10.9653
▁사회에서	-10.9657
▁우리와	-10.9657
해졌다	-10.9659
든지	-10.966
통상	-10.9666
▁날짜	-10.9669
▁표명했다	-10.967
극	-10.9671
꼭	-10.9674
▁예약	-10.9674
2000	-10.9678
▁연구개발	-10.9678
▁아이들을	-10.9678
▁떨어졌다	-10.9679
▁합쳐	-10.968
▁뒤로	-10.968
▁과도하게	-10.9681
▁열정을	-10.9682
▁진단	-10.9684
▁일방적인	-10.9686
▁철거	-10.9688
▁특보	-10.9688
▁구현	-10.9693
▁자료가	-10.9694
▁꿈	-10.9695
▁많을	-10.9695
▁상황과	-10.9696
▁수업을	-10.9697
개가	-10.9697
▁했기	-10.9698
▁위반한	-10.9698
▁계획에	-10.9699
▁술	-10.97
▁종로구	-10.9702
▁요금	-10.9702
▁이중	-10.9703
▁연락이	-10.9704
▁금융기관	-10.9705
▁그렇다	-10.9707
▁상태다	-10.971
▁작가는	-10.971
▁혁신의	-10.971
식품	-10.9711
50	-10.9712
인력	-10.9713
▁날씨	-10.9714
계획	-10.9714
▁노력했다	-10.9716
▁정책으로	-10.9717
▁성장하고	-10.9717
▁인공지능	-10.9718
▁대표이사	-10.9718
▁요청이	-10.972
▁바라고	-10.9723
▁하려는	-10.9724
▁참가한	-10.9726
▁요인으로	-10.9727
▁느낌	-10.9728
▁늘릴	-10.9729
▁일주일	-10.9729
▁영역	-10.9733
▁협상에	-10.9734
▁철수	-10.9734
▁정신이	-10.9735
▁네트워크를	-10.9737
▁즐거움을	-10.9738
▁법정에서	-10.9739
▁원가	-10.974
▁졸업	-10.974
글	-10.9743
▁여러분이	-10.9744
국회의원	-10.9744
▁우리투자증권	-10.9747
▁분쟁	-10.975
▁술을	-10.9754
차량	-10.9756
▁김정일	-10.9757
22	-10.9759
▁전력이	-10.9759
▁끝날	-10.9762
몇	-10.9764
자신의	-10.9764
▁되면서	-10.9767
▁35	-10.9769
▁중심에	-10.9771
▁왔는데	-10.9771
▁분들께	-10.9775
분석	-10.9777
▁증권	-10.9781
▁곳을	-10.9782
에게도	-10.9783
▁넥슨	-10.9785
▁액수	-10.9789
▁창출에	-10.9789
▁원장이	-10.9789
▁청탁	-10.979
▁적자	-10.9792
▁활용하는	-10.9794
▁자율	-10.9797
연구원	-10.9798
▁엄격한	-10.9802
▁찬	-10.9803
▁생산성	-10.9808
▁감독과	-10.9808
▁우병우	-10.9808
▁잠재력	-10.9809
▁선거가	-10.9812
▁이종걸	-10.9813
현행	-10.9816
으로서의	-10.9817
▁공부를	-10.9817
▁진심	-10.9818
▁않았는데	-10.982
▁의견도	-10.9821
▁부여	-10.9822
▁평화적	-10.9822
값	-10.9825
▁억제	-10.9825
▁법에	-10.9827
▁뼈	-10.9827
▁과학기술	-10.9828
▁나와서	-10.9828
▁당부	-10.983
직을	-10.9832
▁장거리	-10.9832
국민의당은	-10.9835
▁맞춘	-10.9835
▁자진	-10.9836
링	-10.9837
▁수십	-10.9838
▁대변인이	-10.9839
▁경영진	-10.9839
법이	-10.9841
▁독자	-10.9844
▁현안에	-10.9845
▁인정한	-10.9845
▁타자	-10.9846
독	-10.9847
▁집중적으로	-10.985
하겠지만	-10.9851
▁부활	-10.9852
▁김씨가	-10.9853
▁나가자	-10.9856
하다가	-10.9857
▁삶	-10.9861
상을	-10.9862
▁판결문에서	-10.9862
▁논쟁	-10.9863
▁특조위	-10.9864
풍	-10.9866
한국에서	-10.9866
▁블랙리스트	-10.9869
대표	-10.987
▁"2013	-10.9873
▁계기를	-10.9875
▁자신에게	-10.9876
▁식	-10.9877
▁원을	-10.9877
▁안되는	-10.9879
▁주어진	-10.9879
▁정도를	-10.988
▁이건	-10.9881
▁장병들	-10.9883
▁거부했다	-10.9884
▁표를	-10.9885
▁일문일답	-10.9885
▁만기	-10.9887
▁해산	-10.9887
이들	-10.9889
▁일으킨	-10.9889
▁내부적으로	-10.989
▁신뢰도	-10.9892
▁사항은	-10.9892
가계부채	-10.9892
▁전한다	-10.9894
▁회견	-10.9896
▁고용노동부	-10.9896
▁등급	-10.9897
▁최우선으로	-10.9899
▁얘기하는	-10.99
▁요구할	-10.99
▁세워	-10.9905
▁형성	-10.9906
▁이름이	-10.9908
▁살리는	-10.9908
▁증가로	-10.9911
▁제주도	-10.9913
자산운용	-10.9913
▁꽤	-10.9914
으니	-10.9915
공천	-10.9915
▁백악관	-10.9915
▁듯하다	-10.9915
▁원내	-10.9916
▁단어	-10.9917
▁키	-10.9919
▁적용해	-10.9919
번째	-10.9921
또한	-10.9922
▁하다가	-10.9922
▁건축	-10.9923
▁사항이	-10.9928
▁해설위원	-10.9929
▁기금	-10.993
▁나타나는	-10.9931
▁친노	-10.9932
▁불가피한	-10.9933
▁갤럭시	-10.9936
▁기록했다	-10.9937
▁명확하게	-10.994
활동	-10.9941
▁고가	-10.9941
군에	-10.9941
▁국민께	-10.9942
▁해결책	-10.9942
▁카드사	-10.9944
▁장점을	-10.9944
▁반대로	-10.9944
▁밖으로	-10.9945
▁매니저는	-10.9945
▁장관과	-10.9946
▁비서관	-10.9947
▁연습	-10.9948
▁동원	-10.9951
▁높아졌다	-10.9951
▁기적	-10.9953
▁달라진	-10.9956
후보	-10.9957
▁소장	-10.996
▁성폭행	-10.9961
▁스토리	-10.9961
▁결실	-10.9961
▁세계적	-10.9962
▁촉구	-10.9964
▁국무회의	-10.9964
▁파트너	-10.9965
이것이	-10.9971
▁보급	-10.9977
기본적으로	-10.9978
▁바람직한	-10.9982
▁심화	-10.9982
▁결정하겠다	-10.9982
▁여는	-10.9989
▁탄생	-10.9994
▁카페	-10.9996
가족	-10.9997
▁확대되고	-11
▁조치는	-11.0002
▁ETF	-11.0002
현재까지	-11.0005
거리	-11.0006
▁지켜본	-11.0006
▁과거에	-11.0006
▁전주	-11.0009
▁의원실	-11.0014
▁시민단체	-11.0015
경선	-11.0015
▁밝히지	-11.0016
주식	-11.0017
검찰의	-11.0018
▁가슴이	-11.002
▁존재한다	-11.0021
슨	-11.0024
▁주제	-11.0025
▁기능이	-11.0033
▁전체회의에서	-11.0034
▁타결	-11.004
▁검찰총장	-11.0042
▁생각도	-11.0044
▁토지	-11.0045
▁포인트	-11.0046
▁법원에	-11.0046
▁납부	-11.0049
▁금융위원회	-11.005
▁여부가	-11.0055
▁시대적	-11.0055
▁갖춰야	-11.0055
까지도	-11.0056
자료	-11.0057
▁삼성물산	-11.0058
▁달려	-11.006
▁무척	-11.0062
▁출석한	-11.0062
▁FIFA	-11.0064
▁적용할	-11.0069
▁지하철	-11.0069
▁하기로	-11.0072
▁리더	-11.0073
▁생긴다	-11.0074
▁태극기	-11.0075
▁공천을	-11.0076
▁선호하는	-11.0076
실제로	-11.0077
▁부탁했다	-11.0082
받은	-11.0083
▁출국	-11.0085
▁유로존	-11.0086
▁성명	-11.0086
▁서울고법	-11.009
▁회수	-11.009
▁말레이시아	-11.0093
▁보여야	-11.0093
▁여건을	-11.0094
▁요청에	-11.0095
▁벌써	-11.0096
▁손학규	-11.0096
▁디스플레이	-11.0097
▁많지만	-11.0097
노조	-11.01
▁욕심	-11.0101
▁보관	-11.0103
▁취득	-11.0104
▁피고인	-11.0107
▁수준에서	-11.0108
행위	-11.0109
▁의문이	-11.011
▁의미한다	-11.0111
▁악영향	-11.0111
▁꽃	-11.0112
위안부	-11.0113
정책을	-11.0113
▁기간을	-11.0117
▁국채	-11.0119
▁ICBM	-11.0119
일간	-11.012
▁당론	-11.0122
▁올리고	-11.0124
▁기타	-11.0126
▁형이	-11.0127
▁뛰고	-11.0128
▁평가하고	-11.0129
▁대안이	-11.013
머	-11.0134
▁편의를	-11.0136
시부터	-11.0138
▁단호	-11.0139
▁없는지	-11.014
▁파트너십	-11.014
▁일하고	-11.0141
▁설명하고	-11.0141
▁조세	-11.0142
▁운전자	-11.0143
▁적폐청산	-11.0145
▁저희가	-11.0145
▁수익률이	-11.0146
▁불이익을	-11.0146
▁초래할	-11.0146
▁알아서	-11.0147
▁변화의	-11.0152
▁인정하기	-11.0152
▁배울	-11.0153
▁만족	-11.0155
▁메뉴	-11.0157
▁다들	-11.0159
25	-11.0159
학생들이	-11.0162
▁공정하게	-11.0162
▁여성이	-11.0164
▁소식에	-11.0165
대구	-11.0165
▁공격적인	-11.0166
▁기여하는	-11.0171
▁정통	-11.0172
▁이코노미스트는	-11.0172
▁동반자	-11.0175
▁도주	-11.0176
▁전례	-11.0176
▁뒤늦게	-11.0177
▁서비스가	-11.0181
▁먹는	-11.0182
했다고	-11.0184
▁업체가	-11.0186
▁몸이	-11.0189
▁발급	-11.0191
▁않냐	-11.0191
▁최신	-11.0192
▁고기압	-11.0192
▁부족해	-11.0193
▁넘치는	-11.0194
▁알릴	-11.0194
재벌	-11.0195
▁시리즈	-11.0197
▁뒀다	-11.0197
▁분노를	-11.02
▁저출산	-11.02
▁데이터를	-11.0202
▁수익률을	-11.0203
▁선언한	-11.0205
통신	-11.0207
▁부합하는	-11.0207
▁쉽고	-11.0208
▁보여줘야	-11.0209
▁얘기할	-11.0209
민주당이	-11.021
선발	-11.021
▁구축을	-11.021
▁법관	-11.0212
벌	-11.0212
▁대응하는	-11.0213
감사	-11.0213
▁통일을	-11.0214
▁밥	-11.0215
▁경계	-11.0215
▁수사팀	-11.0216
체계를	-11.0217
돈을	-11.0217
▁작성한	-11.0218
워	-11.0218
▁이어졌다	-11.0222
화학	-11.0225
료	-11.0226
▁멋진	-11.0227
▁범	-11.0228
▁의미에서	-11.0229
상대	-11.023
▁고려하고	-11.0231
▁망	-11.0231
▁전달할	-11.0232
▁본격	-11.0232
▁전액	-11.0236
▁공정하고	-11.0236
▁비난을	-11.0237
▁내리는	-11.0237
문제는	-11.0238
▁침몰	-11.0239
▁넘어서	-11.0241
▁영토	-11.0241
▁변동	-11.0241
▁개선과	-11.0242
▁과감한	-11.0242
▁구속영장	-11.0245
▁총재	-11.0247
▁일제	-11.0248
막	-11.0249
▁기업인	-11.025
특검	-11.025
▁약화	-11.0251
▁입주	-11.0254
▁공개된	-11.0254
▁바뀐	-11.0256
▁문제다	-11.0258
▁동남아	-11.0258
▁대상자	-11.0259
▁존중	-11.0259
▁농식품부	-11.0259
▁창조	-11.026
▁내정자는	-11.026
▁키울	-11.0261
▁지원과	-11.0266
▁있길	-11.0267
자들이	-11.0268
▁맡아	-11.0269
주가	-11.027
▁공군	-11.0271
▁무료	-11.0271
이었지만	-11.0277
▁마쳤다	-11.0277
▁확보하는	-11.0277
시험	-11.0279
▁선제적	-11.0279
▁하향	-11.0279
24	-11.0281
▁주재	-11.0283
▁유사	-11.0284
▁아프다	-11.0284
▁청문회를	-11.0285
▁사업자	-11.0287
▁받으면	-11.0287
▁거액	-11.0288
것	-11.0288
▁신체	-11.0289
▁없던	-11.029
▁정기국회	-11.0291
▁계란	-11.0291
▁중장기	-11.0293
▁양호한	-11.0293
▁병	-11.0298
▁토론을	-11.0298
▁건의	-11.03
▁검토해야	-11.0304
우리나라는	-11.0304
▁노출	-11.0307
▁대법원은	-11.0309
▁노력과	-11.031
▁설정	-11.0313
축구	-11.0315
▁미국은	-11.0315
만큼은	-11.0316
▁교환	-11.0317
▁강조하며	-11.0317
▁같았다	-11.0317
▁감동을	-11.0318
▁심려	-11.0324
▁개설	-11.0325
▁않기로	-11.0326
▁김성근	-11.0327
▁관건	-11.0331
▁상태에	-11.0332
▁취재진과	-11.0332
▁은행이	-11.0332
야구	-11.0334
▁법무법인	-11.0334
▁청산	-11.0335
해질	-11.0343
▁포럼	-11.0344
▁주한미군	-11.0346
▁이룬	-11.0347
▁경제활성화	-11.0348
▁원화	-11.0348
▁리서치센터장은	-11.035
▁NLL	-11.035
▁상황으로	-11.0355
▁상응하는	-11.0357
생명	-11.036
▁라인업	-11.036
비리	-11.0363
▁한마디	-11.0365
▁포기하지	-11.0365
▁자신들	-11.037
▁분들을	-11.037
력이	-11.037
이야말로	-11.0374
따라서	-11.0375
▁겨냥	-11.0379
▁늘어나	-11.0381
쯤	-11.0381
▁모인	-11.0381
▁장관에게	-11.0383
▁옵션	-11.0383
▁2006	-11.0388
▁잘못이	-11.0392
▁시장과	-11.0394
▁각자	-11.0395
▁호흡	-11.0395
▁서민들	-11.0396
▁양심	-11.0396
였고	-11.0397
측	-11.0398
▁개선하고	-11.0399
▁공동체	-11.0402
▁참여연대	-11.0404
▁떨어지고	-11.0405
▁알려져	-11.0406
조치	-11.0406
▁과감하게	-11.0406
▁생각보다	-11.0407
▁분들에게	-11.0408
현장에서	-11.0411
▁아니며	-11.0415
▁안심하고	-11.0415
▁합류	-11.0415
▁선체	-11.0416
▁위법	-11.0417
▁여사	-11.0418
택	-11.042
▁참여하고	-11.0421
▁가치와	-11.0422
▁진행됐다	-11.0423
광고	-11.0424
▁도움	-11.0427
▁자발적으로	-11.0427
▁성장의	-11.0429
▁전제	-11.0431
조정	-11.0431
▁규정했다	-11.0434
아파트	-11.0434
프로	-11.0436
▁짐	-11.0441
▁중에는	-11.0443
▁400	-11.0443
▁남았다	-11.0445
▁노동자들	-11.045
▁일부를	-11.045
악	-11.0451
▁있었기	-11.0453
▁제기되고	-11.0455
▁불만이	-11.046
▁양당	-11.0461
▁사법	-11.0463
▁투기	-11.0464
▁학교에서	-11.0466
▁이곳	-11.0467
했음에도	-11.0467
▁고려하지	-11.047
데다	-11.0471
▁간절	-11.0471
▁든	-11.0474
▁의원들	-11.0474
▁언제나	-11.0475
▁방북	-11.0477
이었는데	-11.0478
O	-11.0479
▁밖	-11.0481
▁뒷받침	-11.0482
▁지배	-11.0482
▁맞섰다	-11.0483
▁지식	-11.0484
▁찾았다	-11.0485
▁특검은	-11.0487
▁얻어	-11.0487
▁자산관리	-11.0488
▁탁월	-11.0488
▁해상	-11.0488
국회가	-11.0495
▁정밀	-11.0497
▁내용도	-11.0499
▁행사에서	-11.05
▁리더십	-11.0501
▁음식	-11.0502
▁대가를	-11.0502
▁국민의당은	-11.0506
▁공동대표는	-11.0509
▁국정교과서	-11.0509
▁지속할	-11.0511
▁성매매	-11.0513
▁이루는	-11.0515
▁한꺼번에	-11.0515
▁이혼	-11.0517
▁초등학교	-11.0519
▁홈페이지에	-11.052
▁나눌	-11.0524
▁단언했다	-11.0524
▁줄여	-11.0525
T	-11.0525
▁활발한	-11.0527
▁있었다고	-11.0539
마을	-11.0541
▁권한이	-11.0544
사실상	-11.0546
▁은폐	-11.0549
▁삼고	-11.055
▁받았고	-11.055
들로부터	-11.0553
▁분명하다	-11.0553
▁선수들과	-11.0553
야당은	-11.0555
▁홈런	-11.0556
▁수용할	-11.0557
▁단장	-11.0558
▁저항	-11.0558
▁변호사가	-11.0561
시스템을	-11.0563
▁당했다	-11.0564
▁"2017	-11.0564
▁이견이	-11.0565
▁말만	-11.0565
▁생기는	-11.0565
▁소비자가	-11.0565
▁배가	-11.0565
▁내각	-11.0566
▁성장해	-11.0567
▁편리하게	-11.0567
국민의당	-11.0568
▁"30	-11.0569
▁분들은	-11.057
▁주겠다	-11.0571
▁운명	-11.0571
▁입당	-11.0574
▁일본과	-11.0575
▁대선을	-11.0575
▁투자와	-11.0576
▁나누는	-11.0576
▁의장이	-11.0577
▁중국인	-11.0578
▁관련해서도	-11.0582
▁개인적	-11.0583
▁선임연구원은	-11.0585
▁중산층	-11.0586
▁북한군	-11.0588
▁대검	-11.0592
▁전공	-11.0592
▁모르지만	-11.0596
존	-11.0598
▁수술을	-11.0599
왔던	-11.06
▁걸음	-11.0602
▁체질	-11.0603
▁양성	-11.0605
율이	-11.0607
▁재배치	-11.061
▁실패한	-11.0614
▁능력과	-11.0614
▁기온이	-11.0616
▁편입	-11.0618
▁들어서	-11.0619
▁진학	-11.062
▁규모는	-11.0622
▁프로세스	-11.0628
▁휴대폰	-11.0628
▁달라는	-11.0629
춘	-11.0629
▁세제	-11.063
▁반등	-11.0631
▁일선	-11.0632
▁분단	-11.0636
▁운항	-11.0637
▁성향	-11.0639
▁부문에서	-11.064
개월간	-11.0641
비록	-11.0642
으	-11.0644
▁플레이를	-11.0646
▁로봇	-11.0647
▁끝내	-11.0648
▁원인은	-11.0649
▁참여정부	-11.0649
▁GDP	-11.0649
▁국정원이	-11.0649
▁개최를	-11.0649
▁김씨의	-11.065
▁등록금	-11.065
▁나무	-11.0651
▁행사는	-11.0652
과거에	-11.0654
김씨가	-11.0654
▁이어져	-11.0654
▁엄마	-11.0655
책임	-11.0655
▁좋게	-11.0655
▁금품을	-11.0661
위에	-11.0661
버스	-11.0662
▁공직	-11.0664
▁스타트업	-11.0666
▁로비	-11.0666
▁않았기	-11.0667
스마트	-11.0669
▁잡았다	-11.0671
▁공개했다	-11.0671
▁나누고	-11.0675
학원	-11.0681
18	-11.0682
▁명령	-11.0683
▁기계	-11.0684
▁남용	-11.0684
▁넣어	-11.0684
▁발표된	-11.0685
▁핵심은	-11.0686
해나갈	-11.0687
▁상승세	-11.0688
신고	-11.0689
▁일어나지	-11.0692
▁국면	-11.0694
▁실시한	-11.0697
▁담보	-11.07
▁청문회에서	-11.0701
▁무릎	-11.0701
영어	-11.0703
▁복무	-11.0707
▁위에서	-11.0707
▁국제사회와	-11.0708
▁증액	-11.071
낸	-11.0712
▁다하는	-11.0713
▁충북	-11.0714
▁소비자에게	-11.0717
▁PD	-11.0717
▁타협	-11.0721
▁나간	-11.0722
▁원자력	-11.0723
▁복당	-11.0724
▁보게	-11.0724
▁염경엽	-11.0725
▁협의체	-11.0726
▁영	-11.0727
▁특사	-11.0731
▁개발과	-11.0732
▁저와	-11.0735
▁선택한	-11.0736
효	-11.0736
▁실시하고	-11.0736
▁규정이	-11.0738
▁적임자	-11.0738
▁예외	-11.074
선물	-11.0741
▁현안을	-11.0744
▁항소	-11.0745
▁오고	-11.075
▁이기는	-11.075
그건	-11.075
▁주류	-11.0751
▁받아들여	-11.0754
▁강사	-11.0754
▁대표에	-11.0756
▁최후	-11.0758
격	-11.0758
인권	-11.0759
▁이득	-11.0759
▁연계해	-11.076
▁모집	-11.0761
▁제공한	-11.0765
▁열릴	-11.0766
▁인도적	-11.0766
▁돕고	-11.077
▁듣지	-11.077
▁높지	-11.0771
▁방향이	-11.0774
▁당사	-11.0776
▁마크	-11.0776
▁정치적인	-11.0778
▁피력했다	-11.0781
▁법원이	-11.0782
▁따져	-11.0783
▁여부와	-11.0784
▁만나는	-11.0786
▁농민	-11.0787
▁확인되지	-11.0791
▁스타일	-11.0792
▁개혁이	-11.0793
품	-11.0795
▁처사	-11.0802
▁국가들	-11.0805
▁투표를	-11.0807
▁정상회의	-11.0809
▁재판이	-11.0809
▁소통하고	-11.0809
▁토론회에서	-11.0813
▁역내	-11.0816
▁반대하고	-11.0818
▁폭으로	-11.0821
▁체포	-11.0825
인당	-11.0826
협상	-11.0828
▁확보하기	-11.0831
작전	-11.0833
탈	-11.0834
▁기관이	-11.0836
▁발생해	-11.0837
▁않았느냐	-11.0838
▁써야	-11.0838
▁유지하기	-11.0839
▁소통과	-11.0841
▁세종시	-11.0843
▁마련된	-11.0843
▁먼	-11.0844
▁다리	-11.0846
▁기존에	-11.0846
▁얻기	-11.0847
▁제시하는	-11.0848
▁흉기	-11.0852
▁시작됐다	-11.0852
▁검거	-11.0855
▁않겠냐	-11.0855
▁살해	-11.0857
▁와인	-11.0857
신규	-11.0857
21	-11.0858
▁필리핀	-11.0859
▁해석했다	-11.0861
▁고위급	-11.0861
▁수익이	-11.0861
▁자체적으로	-11.0865
▁했었다	-11.0865
▁내실	-11.0866
▁남을	-11.0866
▁움직이는	-11.0869
▁달러를	-11.0871
▁출산	-11.0871
▁경위를	-11.0872
▁가맹점	-11.0873
▁소통이	-11.0875
▁의총	-11.0875
▁완료	-11.0876
개선	-11.0876
▁수혜	-11.0877
▁대내외	-11.0877
▁거리	-11.0878
▁예의	-11.0879
예술	-11.0879
▁믿음을	-11.0881
▁다양하게	-11.0881
▁합격	-11.0882
▁형평성	-11.0885
▁앞선	-11.0886
▁임상	-11.0889
▁빚을	-11.0889
▁눈높이에	-11.0898
▁당당하게	-11.0901
▁아닌데	-11.0902
함께	-11.0903
▁성실하게	-11.0905
년도	-11.0905
▁노사정	-11.0909
▁필요하고	-11.091
▁JTBC	-11.0911
▁우위	-11.0916
▁과잉	-11.0921
▁중진	-11.0921
▁양해	-11.0921
▁끝나는	-11.0922
▁출입	-11.0923
▁파워	-11.0927
되며	-11.0927
▁공적	-11.0929
▁개발하고	-11.0931
▁자사	-11.0931
▁만족감	-11.0932
▁검찰에서	-11.0932
▁공간을	-11.0935
▁이마트	-11.0939
부대	-11.0939
▁위축	-11.094
▁검토한	-11.094
▁무겁다	-11.094
조만간	-11.0946
▁교육의	-11.095
여기에	-11.0952
▁조선중앙통신은	-11.0954
에서부터	-11.0954
원이	-11.0955
▁마음껏	-11.0955
밤	-11.0956
▁기회에	-11.0957
▁강조하는	-11.0959
각별히	-11.096
▁과감	-11.096
▁kt	-11.0964
개혁	-11.0965
관계자는	-11.0966
▁사용하고	-11.0968
▁창립	-11.0969
▁거부하고	-11.0971
▁비대위원장	-11.0972
▁측근	-11.0974
▁총수	-11.0974
▁배우고	-11.0975
▁적응	-11.0975
▁규정에	-11.0975
▁부작용이	-11.0976
▁사정을	-11.0977
실에서	-11.0977
문을	-11.0978
▁차량을	-11.0978
▁사과드린다	-11.0983
▁초과	-11.0984
▁내놓을	-11.0988
▁의문을	-11.0989
▁편의점	-11.0994
▁북미	-11.0995
▁담고	-11.0995
▁상봉	-11.0998
▁유죄	-11.0999
▁투명한	-11.0999
역사	-11.1
밥	-11.1002
▁퇴직	-11.1002
▁단말기	-11.1004
▁지급하라	-11.1005
▁욕설	-11.1005
▁의원총회에서	-11.1005
▁체계적으로	-11.1006
지수	-11.1009
원으로	-11.1012
▁그만	-11.1013
▁잃지	-11.1013
▁상품이	-11.1013
참으로	-11.1014
고용	-11.1014
▁대비한	-11.1016
▁적절하지	-11.1016
▁초대	-11.1016
장비	-11.1017
공급	-11.1018
▁용역	-11.1018
▁하야	-11.1019
엔터테인먼트	-11.1019
▁승객	-11.102
우리도	-11.102
▁부회장이	-11.102
▁승리할	-11.1022
▁보험료	-11.1023
소비자	-11.1027
▁정책위의장	-11.1028
▁곤란하다	-11.1028
분쯤	-11.103
▁"11	-11.103
▁문제제기	-11.1031
▁시점이	-11.1032
▁책임져야	-11.1032
기금	-11.1034
▁클럽	-11.1038
▁감정을	-11.1039
국회에서	-11.104
▁추적	-11.104
▁평	-11.1041
▁절실하다	-11.1043
▁고생	-11.1043
비가	-11.1047
▁좋겠다는	-11.1048
청소년	-11.1049
▁땀	-11.105
중앙	-11.1051
▁재협상	-11.1051
▁국내에	-11.1052
▁엄	-11.1052
▁철강	-11.1053
▁거취	-11.1054
▁OECD	-11.1058
▁IMF	-11.1058
▁민주	-11.1059
▁선수의	-11.1061
▁언제든	-11.1062
▁투	-11.1062
▁불참	-11.1064
일이	-11.1064
▁배출	-11.1066
▁전달한	-11.1071
13	-11.1072
▁가스	-11.1072
▁보이며	-11.1073
▁전반	-11.1075
▁인상이	-11.1075
▁신용카드	-11.1078
▁확대와	-11.108
▁차질이	-11.1083
▁사태의	-11.1083
▁한국거래소	-11.1083
▁가해자	-11.1084
계속	-11.1087
▁키움증권	-11.1088
▁양국간	-11.1089
▁중앙은행	-11.1089
▁생명	-11.109
▁보강	-11.1092
▁M	-11.1094
▁취급	-11.1094
운용	-11.1095
▁네티즌은	-11.1095
3000	-11.1095
▁불평등	-11.1096
▁포수	-11.1097
▁협박	-11.1099
현직	-11.11
▁바꿨다	-11.1102
▁우원식	-11.1104
▁관계자들은	-11.1106
▁표시했다	-11.1108
▁상대방	-11.1108
▁준수	-11.111
▁불합리	-11.1111
▁겨냥해	-11.1111
▁대량	-11.1112
이게	-11.1116
▁환자가	-11.1117
▁가졌다	-11.1117
▁부정부패	-11.1118
투표	-11.1119
▁고향	-11.112
▁변명	-11.1126
H	-11.1126
문제를	-11.1127
▁개막	-11.1128
▁들어온	-11.1128
▁유력	-11.1128
▁하나하나	-11.1129
▁119	-11.1131
▁유진투자증권	-11.1131
▁비자금	-11.1134
▁만들어서	-11.1135
▁당연하다	-11.1136
▁해결될	-11.1136
▁반영할	-11.1137
▁선수단	-11.114
▁재건축	-11.114
▁소식이	-11.1141
쇼	-11.1141
▁추이	-11.1141
▁다짐	-11.1143
▁옷을	-11.1149
▁혁신과	-11.115
▁핵을	-11.115
야말로	-11.1152
경쟁	-11.1152
▁일간지	-11.1153
▁이용자들	-11.1153
으로써	-11.1158
▁길은	-11.1162
▁조합원	-11.1169
충	-11.1171
▁미친	-11.1173
▁성장동력	-11.1173
▁법적으로	-11.1174
▁민간인	-11.1174
▁특권	-11.1175
▁바른	-11.1176
▁지켜볼	-11.1177
준비	-11.1179
▁대응에	-11.1181
▁정치권이	-11.1181
▁겨냥한	-11.1181
▁무엇인가	-11.119
▁아이들에게	-11.1191
▁중립	-11.1191
▁구축하고	-11.1192
▁루	-11.1195
▁원유철	-11.1196
▁요구된다	-11.1196
▁더해	-11.1197
▁건데	-11.1198
▁싶다는	-11.1198
▁정체	-11.12
됐기	-11.1202
▁낭비	-11.1203
▁고위관계자는	-11.1205
▁추정	-11.1206
기반	-11.121
▁일반적인	-11.1211
▁용기를	-11.1212
▁장이	-11.1215
▁진정성을	-11.1216
▁공격수	-11.1216
▁수단이	-11.122
▁여러분들	-11.1223
▁모델로	-11.1226
▁대타협	-11.1226
▁주민들은	-11.1228
▁분명하게	-11.1229
▁수사와	-11.1231
였는데	-11.1232
▁다변화	-11.1235
▁그러한	-11.1236
▁담겨	-11.124
▁본부	-11.1242
▁없이는	-11.1243
▁잔	-11.1243
보통	-11.1244
▁전달하는	-11.1245
▁대립	-11.1246
▁세계경제	-11.1248
▁준비해야	-11.125
▁우려에	-11.1252
▁임시국회	-11.1256
▁주도하는	-11.1258
▁거주	-11.1265
▁빌려	-11.127
▁소규모	-11.1271
▁적어	-11.1272
▁필요하다면	-11.1272
▁민족의	-11.1273
▁보장하는	-11.1273
시장을	-11.1274
▁틸러슨	-11.1275
▁창의적인	-11.1276
축	-11.1276
최저임금	-11.1276
▁길에	-11.1276
▁질적	-11.1276
▁진출할	-11.1277
▁탄핵심판	-11.1279
였지만	-11.1281
▁산업이	-11.1282
▁강조한다	-11.1284
▁원내대표와	-11.1284
▁나눴다	-11.1284
▁진술이	-11.1285
▁단계적으로	-11.1285
▁논의해	-11.1285
▁마련을	-11.1286
함과	-11.1287
▁자유로운	-11.1287
▁내부에서	-11.1288
▁법사위	-11.1293
▁훈련에	-11.1293
▁농가	-11.1294
중요한	-11.1294
▁좋지만	-11.1294
▁시즌에	-11.1299
▁광화문	-11.1299
▁교수의	-11.1301
▁일관되	-11.1302
▁국가에	-11.1303
▁이들에게	-11.1303
▁지지하는	-11.1305
해주는	-11.1307
▁기여하고	-11.131
▁환수	-11.1311
▁방향에	-11.1311
▁소비자들	-11.1313
▁폭넓	-11.1315
자에게	-11.1316
▁데에	-11.1316
▁확보했다	-11.1318
▁먹을	-11.1319
▁심상정	-11.132
▁논란과	-11.132
▁취약한	-11.1322
▁지나친	-11.1325
▁것들을	-11.1327
▁인연	-11.1329
▁승계	-11.1329
▁정해	-11.133
▁하자고	-11.1336
▁용납할	-11.1336
▁소폭	-11.1343
▁행동에	-11.1343
▁농촌	-11.1345
▁단호히	-11.1347
▁시비	-11.1348
▁분석한	-11.1348
▁축하	-11.1351
▁중요하게	-11.1351
▁못하도록	-11.1353
메	-11.1356
▁파기	-11.1357
무역	-11.1357
▁병원에	-11.1357
금지	-11.1358
▁유세	-11.1358
▁객관적	-11.1358
▁즐겁게	-11.1361
▁회복세	-11.1363
▁든든한	-11.1363
4000	-11.1363
▁확인을	-11.1364
▁자세히	-11.1365
▁경비	-11.1365
▁단계에	-11.1368
▁활약을	-11.137
▁없으니	-11.1371
▁화성	-11.1373
▁풀어	-11.1374
팀을	-11.1376
▁교통사고	-11.1376
▁그린	-11.1379
▁과장	-11.1381
▁은행권	-11.1381
▁이해하기	-11.1383
매우	-11.1385
▁박수를	-11.1387
보고서	-11.1393
▁손에	-11.1394
견	-11.1394
▁우상호	-11.1394
▁오찬	-11.1396
▁년간	-11.1401
▁그나마	-11.1404
▁확고히	-11.1405
▁행복을	-11.1408
▁이모씨는	-11.1409
▁가족들이	-11.1411
스트	-11.1416
▁지역은	-11.1418
▁조합	-11.142
▁우선적으로	-11.1421
▁웃으며	-11.1423
▁태세	-11.1423
▁걸친	-11.1424
▁성분	-11.1426
▁LA	-11.1427
▁보전	-11.1427
▁체육	-11.1431
▁의미로	-11.1432
▁협력의	-11.1436
▁서울의	-11.1436
▁계층	-11.1439
▁해결하고	-11.1439
▁남조선	-11.1442
▁잡기	-11.1446
▁선처	-11.1449
▁유지해	-11.145
▁임하겠다	-11.1451
▁경제협력	-11.1451
▁높아진	-11.1454
▁줄어든	-11.1455
▁단기적으로	-11.1459
▁기업들은	-11.1464
▁방역	-11.1466
▁제공하겠다	-11.1467
자와	-11.1467
기는	-11.1468
▁커다란	-11.1468
사람	-11.1469
▁만드는데	-11.1471
▁고리	-11.1475
▁원하지	-11.1476
전력	-11.1477
▁강화하기	-11.1477
▁주면	-11.1478
▁설득	-11.1481
▁향	-11.1482
▁협력할	-11.1483
▁응하지	-11.1484
▁해온	-11.1487
▁불이	-11.1489
원은	-11.149
▁던질	-11.1496
▁도울	-11.1496
▁교육이	-11.1497
▁상시	-11.15
▁주식시장	-11.1503
▁처방	-11.1506
▁중요하다고	-11.1507
▁생	-11.1508
▁김현	-11.151
▁원자재	-11.151
▁차관	-11.1511
▁제품으로	-11.1513
분이	-11.1513
▁농	-11.1515
▁내외	-11.1516
▁안전하고	-11.1516
▁교수도	-11.1518
▁공간이	-11.1518
▁전에는	-11.1519
▁못했고	-11.152
▁사후	-11.152
사업부	-11.1521
항공	-11.1522
▁가입자	-11.1522
▁서명	-11.1524
▁하나금융투자	-11.1525
▁거리가	-11.1526
▁막말	-11.1527
▁생각이다	-11.1527
국민은행	-11.1528
▁장점	-11.1528
▁어려웠다	-11.1529
▁나서고	-11.1529
▁자신감이	-11.153
▁같지	-11.1531
▁물량이	-11.1533
중인	-11.1533
이건	-11.1539
▁대화에	-11.1539
▁산업은행	-11.1539
▁고용부	-11.154
▁커뮤니티	-11.1541
▁작업에	-11.1545
▁연구소	-11.1546
▁의의	-11.1546
▁취약	-11.1548
▁진실이	-11.1549
▁국제사회	-11.1552
▁가할	-11.1553
모두	-11.1554
▁언급을	-11.1554
시까지	-11.1555
북한에	-11.1556
▁통화를	-11.1557
▁가끔	-11.1558
▁위조	-11.1559
▁"2008	-11.1561
줬으면	-11.1562
▁시진핑	-11.1563
▁주도한	-11.1564
▁고도	-11.1564
듯이	-11.1564
▁현실화	-11.1565
▁불법행위	-11.1567
▁걸린	-11.1568
▁환	-11.157
▁경감	-11.157
▁고민해야	-11.157
밀	-11.1572
▁화학	-11.1572
▁일상	-11.1572
제주	-11.1573
▁주권	-11.1573
▁고등학교	-11.1575
▁건국대	-11.1577
지지	-11.1578
▁역사에	-11.1578
▁마리	-11.158
▁강화와	-11.1581
▁그저	-11.1583
▁드러낸	-11.1584
▁인사청문회에서	-11.1584
▁책임질	-11.1586
▁학대	-11.1588
었는데	-11.1589
▁임무	-11.1589
▁데리고	-11.159
▁목표가	-11.1593
▁제안에	-11.1594
▁단합	-11.1594
▁삭제	-11.1596
▁공공부문	-11.1598
▁MLB	-11.16
▁만하다	-11.1603
귀	-11.1604
텍	-11.1604
▁제재와	-11.1607
▁제시할	-11.161
▁생존	-11.1612
브랜드	-11.1612
▁응징	-11.1615
▁카드를	-11.1616
▁내년도	-11.1617
▁마땅하다	-11.162
추경	-11.1622
▁주민의	-11.1623
▁제시하고	-11.1624
▁완벽하게	-11.1625
▁효과는	-11.1626
▁재무	-11.1627
▁당국은	-11.1627
▁다해야	-11.1628
▁폭발	-11.1631
▁여당의	-11.1631
▁두루	-11.1633
▁진영	-11.1633
▁기획했다	-11.1634
▁표준	-11.1635
▁계속되고	-11.1636
▁경찰관	-11.1636
네요	-11.1639
▁용어	-11.1639
▁일으켜	-11.1641
몰	-11.1641
엘	-11.1642
▁교훈	-11.1643
사랑	-11.1647
위가	-11.1647
▁토	-11.1648
▁불리는	-11.1649
▁잘하는	-11.1651
경찰서	-11.1651
▁대주주	-11.1653
▁단일	-11.1655
16	-11.1656
일로	-11.1656
▁아침에	-11.1661
서울시	-11.1665
▁조건이	-11.1667
▁기울이겠다	-11.1668
▁"2018	-11.1668
▁넓은	-11.1669
▁벗어나지	-11.167
▁언론은	-11.1673
▁이끌고	-11.1673
▁정체성을	-11.1674
▁막아야	-11.1676
▁현실이	-11.1678
▁경제와	-11.1678
▁소수	-11.1682
▁도박	-11.1682
국정	-11.1686
연금	-11.1686
▁김성태	-11.1688
▁사용하지	-11.1689
▁제안한다	-11.169
▁금액을	-11.1691
▁만났다	-11.1691
▁해고	-11.1693
▁감성	-11.1695
▁뚜렷한	-11.1695
빠른	-11.1695
▁외에는	-11.1697
▁금할	-11.1698
▁그럼에도	-11.1699
▁구분	-11.1701
▁매출액	-11.1701
으나	-11.1702
▁워싱턴	-11.1703
▁자세한	-11.1707
▁내용으로	-11.1708
내부	-11.1708
▁패소	-11.1712
▁심경을	-11.1712
▁결정될	-11.1716
▁조건으로	-11.1716
인만큼	-11.1717
▁기울여야	-11.1717
▁프로그램에	-11.1717
▁회복이	-11.1718
대한민국의	-11.1718
▁받아들이고	-11.1722
앤	-11.1723
▁120	-11.1726
▁정황이	-11.1726
▁묻지	-11.1726
▁이메일	-11.1727
▁수렴해	-11.1728
▁조절	-11.1729
헌법	-11.1731
대학교	-11.1731
▁있어요	-11.1733
▁자유무역협정	-11.1736
▁심도	-11.1737
법과	-11.1737
▁확보에	-11.1738
▁고립	-11.1739
▁재미	-11.1739
▁국방위원회	-11.174
▁서둘러	-11.1741
▁독립성	-11.1742
▁걸린다	-11.1742
▁대응하고	-11.1742
▁마이크	-11.1744
▁불거진	-11.1746
년은	-11.1747
▁태국	-11.1747
▁소상공인	-11.1748
교통	-11.1748
▁성폭력	-11.1751
항상	-11.1753
L	-11.1754
▁일본에	-11.1755
▁회담을	-11.1758
▁글이	-11.1763
▁비싼	-11.1769
▁가을	-11.1771
▁이어가고	-11.1773
▁작동	-11.1773
▁던진	-11.1773
유플러스	-11.1774
오랜	-11.1775
▁권한대행은	-11.1775
▁것들이	-11.1777
▁세우는	-11.1779
▁대선에	-11.1779
▁챙겨	-11.1782
족	-11.1783
F	-11.1784
▁놓은	-11.1786
▁명목으로	-11.1786
교사	-11.1787
▁대피	-11.1787
평화	-11.1788
▁현지에서	-11.1789
행사	-11.1789
반드시	-11.1791
▁정서	-11.1791
▁해주는	-11.1794
▁인프라를	-11.1795
▁돌아올	-11.1797
▁사안을	-11.1799
추석	-11.18
▁사명	-11.18
▁사유가	-11.1801
▁김일성	-11.1801
▁개척	-11.1801
▁관해선	-11.1801
▁희망의	-11.1805
▁똑같이	-11.1805
▁후보들	-11.1807
▁장점이	-11.181
▁따졌다	-11.1811
시장에	-11.1811
com	-11.1812
▁조치에	-11.1813
금융그룹	-11.1815
▁자세가	-11.1815
스마트폰	-11.1817
▁신속하고	-11.1818
▁왔고	-11.1818
▁여력이	-11.1819
▁선수로	-11.182
민생	-11.182
▁해소하고	-11.1822
▁효과적	-11.1823
시는	-11.1823
▁모두발언에서	-11.1823
합의	-11.183
▁바라보는	-11.183
▁다르지	-11.1832
▁틀에서	-11.1833
▁비준	-11.1835
▁기술적	-11.1836
예전에	-11.1837
▁전교조	-11.1839
▁장사	-11.1839
▁회계	-11.184
▁매진	-11.184
▁혁신위	-11.1843
▁드리는	-11.1845
▁다저스	-11.1847
▁전망치	-11.1851
▁멀리	-11.1852
작은	-11.1852
▁종	-11.1854
스스로	-11.1855
▁강요	-11.1856
▁평가할	-11.1856
▁김한길	-11.1856
▁이르기까지	-11.1859
▁오르는	-11.1861
▁자질	-11.1861
▁미만	-11.1863
▁받아서	-11.1866
▁입장에선	-11.1869
▁코레일	-11.1869
▁궁극적으로	-11.187
▁고도화	-11.1871
▁신중	-11.1873
▁숨진	-11.1873
▁준비하겠다	-11.1876
▁기아차	-11.1876
▁당직자	-11.1878
▁중에서도	-11.1881
▁선도하는	-11.1885
셨다	-11.1885
▁있더라도	-11.1885
수능	-11.1889
▁경선을	-11.1889
▁거라	-11.189
▁개혁에	-11.1891
▁E	-11.1893
문화를	-11.1893
현대	-11.1894
▁이뤄져	-11.1894
▁시험을	-11.1897
▁기반이	-11.1898
▁아쉬운	-11.1898
▁문자를	-11.1898
▁모아야	-11.1899
됐다는	-11.19
▁총리를	-11.1901
▁목소리	-11.1902
하러	-11.1904
▁비행기	-11.1905
▁제도개선	-11.1905
▁재직	-11.1908
▁거듭날	-11.1909
▁혼란이	-11.191
▁단위	-11.1911
▁전해	-11.1913
▁하니까	-11.1916
마케팅	-11.1916
▁소통하는	-11.1917
▁신인	-11.1919
▁최근에	-11.192
계획을	-11.1921
▁팬들이	-11.1922
▁원하고	-11.1923
▁국무부	-11.1925
▁의미있는	-11.1929
▁국회의원이	-11.1931
인천	-11.1931
▁정도였다	-11.1931
▁마감	-11.1932
▁관계는	-11.1933
▁내역	-11.1934
▁방사청	-11.1935
▁걱정하는	-11.1937
▁모습은	-11.194
▁계속되는	-11.1943
▁본지와의	-11.1945
▁사회공헌활동	-11.1946
▁제품은	-11.1946
스는	-11.195
▁조사한	-11.195
▁대학에	-11.1952
정도	-11.1954
심에서	-11.1954
▁서비스로	-11.1956
▁자전거	-11.1957
▁노하우	-11.196
▁사실이다	-11.196
▁2002	-11.1961
▁박지성	-11.1963
▁무시하는	-11.1964
▁질의	-11.1966
▁공감하고	-11.1966
▁이해관계	-11.1972
됐으면	-11.1972
▁재도약	-11.1972
▁유포	-11.1973
▁안희정	-11.1974
▁처장은	-11.1976
▁저에게	-11.1978
▁오늘은	-11.198
▁일련의	-11.1981
▁비서관은	-11.1987
▁무력	-11.1988
▁선택하는	-11.199
▁부당	-11.1991
▁소녀상	-11.1991
▁원한	-11.1992
▁개선할	-11.1992
▁기다려	-11.1993
▁흔들림	-11.1994
▁DNA	-11.1996
▁발언한	-11.1999
▁중소기업이	-11.2001
▁위험성	-11.2002
▁자평했다	-11.2004
▁않는다고	-11.2004
▁탈퇴	-11.2005
화된	-11.2006
▁속도로	-11.2007
▁강경	-11.2007
▁책임감	-11.2008
▁보고했다	-11.2009
▁임의	-11.2009
▁재활	-11.201
적절히	-11.2011
▁느낀	-11.2011
▁죽음	-11.2011
▁도대체	-11.2012
▁이화여대	-11.2013
▁게임이	-11.2015
▁극	-11.2016
▁불어	-11.2017
▁국적	-11.2018
▁재계약	-11.2019
▁로스쿨	-11.2019
▁대표로	-11.202
▁거둔	-11.202
▁양산	-11.2021
▁깨끗한	-11.2021
▁산업을	-11.2022
▁석유	-11.2022
▁노력도	-11.2023
▁관계자가	-11.2025
▁목소리로	-11.2025
▁이걸	-11.2027
▁호조	-11.2028
▁받았다는	-11.203
▁군인	-11.2031
촌	-11.2031
▁"2016	-11.2031
▁나타나	-11.2031
▁옛	-11.2031
▁꼼수	-11.2033
분에	-11.2035
▁법의	-11.204
▁자영업자	-11.2041
팔	-11.2044
▁점검해	-11.2044
▁협력업체	-11.2046
▁달한다	-11.2046
▁진화	-11.2047
▁지역이	-11.2049
▁복합	-11.2049
▁하라고	-11.2052
▁폐	-11.2053
▁이내	-11.2055
보안	-11.2055
▁구조가	-11.2056
▁한은은	-11.2056
최씨가	-11.2057
▁떠난	-11.2058
여당	-11.206
▁내정자	-11.2061
독일	-11.2064
▁파악할	-11.2064
▁친구들과	-11.2064
▁영역을	-11.2066
▁현실에	-11.2068
▁선택이	-11.2071
▁도전을	-11.2075
▁용인	-11.2075
▁전병헌	-11.2076
무리한	-11.2079
▁마라	-11.2081
▁인멸	-11.2085
▁최순실씨	-11.2085
▁힘쓰겠다	-11.2085
▁옮겨	-11.2086
해진	-11.2086
▁개성	-11.2087
▁공유하는	-11.209
▁입증	-11.209
▁공화국	-11.2091
▁무시한	-11.2093
KB	-11.2094
▁입원	-11.2096
▁헬기	-11.2098
▁복	-11.2098
▁이탈	-11.2099
▁발굴해	-11.21
▁겪은	-11.2102
▁다음달	-11.2105
▁반환	-11.211
▁베	-11.211
▁국토교통부	-11.2111
▁갖지	-11.2111
▁자식	-11.2112
▁감면	-11.2115
8000	-11.2117
▁대처할	-11.2121
▁문학	-11.2123
▁보이지만	-11.2126
▁헌법에	-11.2127
▁축	-11.2127
공공	-11.2128
▁수익성이	-11.2131
▁살기	-11.2131
▁객관적인	-11.2131
금융권	-11.2134
▁그림	-11.2136
▁준비에	-11.2137
▁탈북	-11.2138
▁특검이	-11.2139
▁담합	-11.2139
▁당신	-11.2139
▁교육청	-11.2141
▁삭감	-11.2142
▁있었으면	-11.2142
▁자세	-11.2143
▁오프라인	-11.2144
▁획득	-11.2144
▁급격한	-11.2145
▁때와	-11.2147
라서	-11.2147
▁정당성	-11.2148
▁신뢰와	-11.215
▁취한	-11.215
▁LH	-11.2152
▁용의	-11.2154
▁상황에서도	-11.2154
▁언론에서	-11.2155
▁자체에	-11.2157
▁쟁점	-11.2157
종합	-11.2157
▁징후	-11.2157
▁발생한다	-11.2158
▁후퇴	-11.2159
▁보조	-11.216
▁수사권	-11.2163
▁도덕적	-11.2164
▁비핵화를	-11.2164
▁정당의	-11.2167
일본의	-11.2168
▁부진한	-11.217
▁대가로	-11.217
▁비트코인	-11.2171
▁되어야	-11.2172
▁호소	-11.2174
사에	-11.2174
회의에서	-11.2176
▁의원들에게	-11.2177
▁성인	-11.2179
▁선거법	-11.2179
▁주도적으로	-11.2179
V	-11.218
▁옆에	-11.2181
▁없어야	-11.2181
▁비판한	-11.2183
▁통합의	-11.2186
▁서해	-11.2186
▁총장의	-11.2187
▁현명한	-11.2189
▁김진태	-11.219
▁저자는	-11.2192
▁기울일	-11.2192
▁일본에서	-11.2196
시장은	-11.2196
▁맞았다	-11.2197
▁승부	-11.2197
쿠	-11.2198
▁약한	-11.22
▁정면으로	-11.2201
▁그랬다	-11.2201
▁맡게	-11.2201
▁이루고	-11.2201
▁창	-11.2202
▁접	-11.2203
▁하기도	-11.2204
▁탄	-11.2206
▁신년사	-11.2206
▁구제	-11.2208
▁선호	-11.2211
▁않겠다고	-11.2211
용으로	-11.2211
▁물의	-11.2213
▁인정한다	-11.2213
오후	-11.2214
▁조사됐다	-11.2215
▁로드맵	-11.2215
공동	-11.2216
▁업체들이	-11.2217
▁행진	-11.2218
▁FC	-11.2218
▁실적에	-11.2219
▁대상을	-11.2219
▁파행	-11.222
▁마이너스	-11.222
▁시청	-11.2222
▁일대	-11.2222
▁집중해	-11.2223
스포츠재단	-11.2224
▁세계의	-11.2226
하반기	-11.2229
▁요청한다	-11.2229
▁재정위기	-11.2229
▁원칙이	-11.2229
퍼	-11.223
▁위험에	-11.223
▁인간의	-11.2231
▁솔루션	-11.2232
▁전담	-11.2232
▁그들이	-11.2233
▁두는	-11.2235
▁예정인	-11.2236
▁쇼	-11.224
▁4000	-11.2241
▁처리해야	-11.2242
장에	-11.2242
▁걸려	-11.2242
▁미흡한	-11.2248
▁완성도	-11.225
▁국회는	-11.225
▁동네	-11.225
자들의	-11.2251
▁금융사	-11.2251
▁그러면	-11.2255
▁불안을	-11.2255
▁유도	-11.2256
▁실패했다	-11.2257
튼	-11.2257
건강	-11.2259
▁기다리는	-11.226
▁서울에서	-11.2261
▁학과	-11.2263
▁물어야	-11.2264
▁상정	-11.2265
▁어렵다고	-11.2266
▁대북정책	-11.2267
슬	-11.2268
▁올라갈	-11.2268
업종	-11.2268
▁감추지	-11.2268
▁심정으로	-11.2272
▁부끄러운	-11.2272
▁집행유예	-11.2272
▁기록한	-11.2274
▁바꾼	-11.2277
▁도심	-11.228
▁향상에	-11.2282
▁정세균	-11.2282
시간을	-11.2283
▁몰고	-11.2284
아무래도	-11.2284
▁자긍심	-11.2284
▁안종범	-11.2285
명과	-11.2287
▁유리	-11.2288
▁열람	-11.2289
▁"2011	-11.229
지가	-11.2291
▁온갖	-11.2293
률	-11.2293
▁장기화	-11.2295
▁열악한	-11.2296
▁개통	-11.2296
▁가격으로	-11.2297
▁금융서비스	-11.2297
▁명예훼손	-11.2298
▁지식을	-11.2299
▁구형	-11.23
6000	-11.2302
N	-11.2302
▁측근은	-11.2303
▁과제로	-11.2308
▁관계부처	-11.2308
▁전통시장	-11.2309
▁지역으로	-11.2309
▁영입을	-11.2309
▁할머니	-11.231
▁법조계	-11.2311
▁확인이	-11.2311
▁말라고	-11.2315
▁요리	-11.2317
▁캐나다	-11.2318
조금	-11.2322
▁심각하다	-11.2323
▁마음대로	-11.2326
▁유죄로	-11.2326
▁태풍	-11.2327
▁유학	-11.2331
▁측정	-11.2335
▁극대화	-11.2335
▁모두의	-11.2336
▁현실적인	-11.2338
▁알기	-11.2338
▁대비태세	-11.2339
개년	-11.2339
▁결정해야	-11.234
▁어렵지	-11.2341
올림픽	-11.2342
▁원으로	-11.2347
▁상용화	-11.2348
▁불안한	-11.2356
▁가짜	-11.2357
▁자제	-11.2359
▁마련이	-11.2359
▁일정에	-11.2361
▁요	-11.2362
▁박영선	-11.2362
▁차량이	-11.2364
▁행동이	-11.2369
▁석방	-11.2371
▁학교를	-11.2375
▁밝히기	-11.2375
▁일방적	-11.2377
▁J	-11.238
산업의	-11.238
▁총괄하	-11.2381
▁근무하는	-11.2385
▁빼고	-11.2386
▁선임연구위원은	-11.2387
▁총괄회장	-11.2387
▁전투기	-11.2391
추진	-11.2392
▁발언으로	-11.2392
탁	-11.2393
▁가처분	-11.2393
▁전하고	-11.2395
▁제의	-11.2395
▁관세	-11.2398
▁사람으로	-11.24
▁얘기한	-11.2401
▁주차	-11.2403
▁지사가	-11.2403
철도	-11.2404
▁자기가	-11.2407
▁노력한	-11.2407
▁식약처	-11.2408
▁남아있다	-11.241
▁경주	-11.2412
▁공급이	-11.2412
▁파면	-11.2412
국민들의	-11.2412
▁인사에	-11.2414
▁보이콧	-11.2416
▁힘들어	-11.2416
발표	-11.2418
▁아무래도	-11.2419
▁보존	-11.2422
▁체계적	-11.2422
▁김기태	-11.2424
▁김경문	-11.2425
건의	-11.2425
▁벽	-11.2428
▁기후변화	-11.2429
▁성격	-11.2433
▁손상	-11.2435
▁처	-11.2435
▁일체	-11.2436
조에	-11.2437
▁참고	-11.2437
▁거짓말을	-11.2441
▁불구속	-11.2441
▁지적하며	-11.2442
▁마련하기	-11.2443
▁금품	-11.2444
▁들어올	-11.2445
이달	-11.2445
▁대법원장	-11.2446
▁권고	-11.2447
▁엄정하게	-11.2448
▁나라는	-11.2449
▁거대	-11.2449
▁판결에	-11.245
안에	-11.2451
▁안타깝게	-11.2452
▁정원	-11.2453
▁돕겠다	-11.2453
▁깊게	-11.2457
▁가족을	-11.2459
▁후보도	-11.2459
▁소통의	-11.2461
군에서	-11.2461
▁경기장	-11.2462
▁산정	-11.2465
야당의	-11.2465
▁동시	-11.2467
▁않아서	-11.2469
▁짚었다	-11.247
폭	-11.247
▁층	-11.2471
▁도와	-11.2473
▁검사가	-11.2474
힐	-11.2474
▁탄압	-11.2475
▁IP	-11.2478
▁살릴	-11.2478
▁치는	-11.2479
▁찾아와	-11.2483
국민과	-11.2483
▁대가	-11.2484
▁키우고	-11.2484
▁업적	-11.2485
수도권	-11.2485
▁일으킬	-11.2487
▁경제위기	-11.249
▁주한	-11.249
▁모두발언	-11.2491
▁인물이	-11.2495
▁안팎	-11.2496
▁손실이	-11.25
▁바다	-11.2501
▁심리적	-11.2503
확대	-11.2505
량이	-11.2505
▁방문하는	-11.2505
▁사태로	-11.2507
▁최고위	-11.2508
▁눈길	-11.2508
▁보호하기	-11.2508
▁딸이	-11.2516
▁방통위	-11.2516
일수록	-11.2518
▁학생의	-11.2518
▁선생	-11.2519
▁처리가	-11.252
▁현황	-11.2522
위로	-11.2522
▁부정하는	-11.2522
▁민주적	-11.2526
▁입점	-11.2526
▁최종적으로	-11.2526
▁압도적	-11.2528
육	-11.2531
▁신뢰할	-11.2532
▁의지와	-11.2534
▁조직이	-11.2534
▁출시를	-11.2534
▁처리하는	-11.2535
▁새누리당과	-11.2538
회사가	-11.2538
▁원칙과	-11.254
▁주도권	-11.2543
▁IB	-11.2544
▁무리하게	-11.2545
▁칠	-11.2546
▁한두	-11.255
▁잡지	-11.2555
▁강화될	-11.2556
▁공세를	-11.2557
▁브랜드로	-11.2558
▁산업에	-11.2558
▁머니투데이와	-11.256
▁성주	-11.2566
▁등에게	-11.2566
▁근로	-11.2567
▁언론사	-11.2567
▁반해	-11.2569
렌	-11.257
▁겁니다	-11.2575
▁관계로	-11.2577
▁피고인이	-11.258
▁결단	-11.258
▁세상에	-11.258
▁가상화폐	-11.2581
▁바뀌었다	-11.2581
▁원치	-11.2584
▁가수	-11.2587
책을	-11.2588
▁수사는	-11.259
▁몰라도	-11.2591
▁증언했다	-11.2596
했으니	-11.2598
▁기업은행	-11.2601
▁해가	-11.2601
▁끌	-11.2602
▁액션	-11.2604
▁과거와	-11.2607
▁여사는	-11.2609
그냥	-11.261
▁보험금	-11.2611
창조경제	-11.2613
▁탈북자	-11.2614
▁말하자	-11.2614
▁정치권에서	-11.2617
리스	-11.2617
▁뜻으로	-11.2619
▁그림을	-11.2619
▁동생	-11.262
▁주장한다	-11.262
▁사람으로서	-11.2621
▁물어	-11.2624
▁분의	-11.2627
페	-11.2628
장애인	-11.2629
▁모양	-11.2632
지금도	-11.2633
▁반복	-11.2634
▁한진해운	-11.2635
▁패키지	-11.2636
▁클라우드	-11.2639
여명의	-11.264
▁사과하고	-11.2643
▁종북	-11.2644
▁상승세를	-11.2645
▁아세안	-11.2646
▁형사처벌	-11.2648
먼	-11.2649
▁독서	-11.2649
▁병역	-11.265
▁베이징	-11.2651
▁팬들의	-11.2653
▁돌아가는	-11.2655
▁관리할	-11.266
▁치안	-11.2661
▁감동	-11.2661
▁발을	-11.2665
▁잔류	-11.2667
정책관은	-11.2669
공공기관	-11.2669
▁가득	-11.2671
▁상해	-11.2671
▁있었다면	-11.2672
▁생각해야	-11.2672
▁취재	-11.2673
▁민주주의의	-11.2674
련	-11.2674
지점	-11.2675
▁거점	-11.2675
우리나라의	-11.2678
▁아쉬워했다	-11.2678
▁발표가	-11.2678
받았다	-11.2679
▁일들이	-11.268
▁종종	-11.2681
▁전술핵	-11.2682
▁교섭	-11.2684
아직도	-11.2686
▁사람들과	-11.2687
장에서	-11.2691
▁배분	-11.2693
▁진행하겠다	-11.2694
▁동부	-11.2694
▁예상치	-11.2696
폐	-11.2696
▁중학교	-11.2697
노동자	-11.2697
▁금액이	-11.2698
▁면이	-11.27
▁진상	-11.27
▁변화는	-11.2701
▁극복하기	-11.2703
▁보건	-11.2704
▁내겠다	-11.2704
▁창단	-11.2706
▁백신	-11.2706
재산	-11.2708
외부	-11.2708
▁고정	-11.2709
▁풀어야	-11.2709
몸	-11.2711
▁지시에	-11.2712
▁배상	-11.2713
▁관여한	-11.2713
▁우주	-11.2717
▁입었다	-11.2717
▁따	-11.2718
만원으로	-11.2718
▁돌려	-11.2719
▁동물	-11.2722
▁중으로	-11.2723
▁사무국장은	-11.2724
▁내년부터	-11.2724
▁표절	-11.2726
▁게임의	-11.2727
최씨	-11.2727
통화	-11.2728
내년에는	-11.2728
▁고스란	-11.2729
▁누리과정	-11.273
▁중도	-11.2732
▁가전	-11.2732
▁레	-11.2732
▁면	-11.2733
▁기득권을	-11.2735
▁발휘해	-11.2736
의원	-11.2736
▁차질없	-11.2737
▁주가는	-11.2738
▁회복할	-11.2739
▁추억을	-11.274
뉴스	-11.2741
기업들이	-11.2741
잔	-11.2741
▁길게	-11.2742
▁의도적으로	-11.2742
▁발판	-11.2743
▁권유	-11.2744
▁불리한	-11.2749
▁특유의	-11.275
위는	-11.2751
▁당부한다	-11.2752
▁북측	-11.2753
최대한	-11.2758
집회	-11.2758
▁임대료	-11.2759
▁음식을	-11.276
▁읽고	-11.276
▁살리고	-11.276
대우증권	-11.2761
▁힘주어	-11.2764
▁안타	-11.2768
▁위치에	-11.2768
▁강남구	-11.2769
▁교원	-11.2774
▁상처	-11.2776
▁중대	-11.2778
▁거부한	-11.2779
▁탓	-11.2779
▁문화예술	-11.278
▁상승할	-11.2781
컵	-11.2781
▁공개하지	-11.2783
▁상식	-11.2783
강화	-11.2784
▁국정원의	-11.2784
▁검사는	-11.2786
▁범죄에	-11.2788
▁논의는	-11.2791
▁존중하고	-11.2792
최종	-11.2792
▁입지를	-11.2793
▁거부하는	-11.2794
교수	-11.2795
▁역할은	-11.2797
▁도입해	-11.2797
이들은	-11.2798
그게	-11.2801
▁점검을	-11.2804
▁유권자	-11.2805
립	-11.2805
▁중앙대	-11.2805
▁시민이	-11.2807
▁2005	-11.2808
27	-11.2809
▁황우여	-11.2809
▁반영하는	-11.281
▁분을	-11.2811
아직까지	-11.2811
▁불가	-11.2811
▁인권을	-11.2812
▁행위로	-11.2813
▁법령	-11.2814
▁총회	-11.2814
▁생기면	-11.2815
▁포기하고	-11.2815
▁분은	-11.2816
▁사명감	-11.2816
▁이뤄지	-11.2816
▁싱가포르	-11.2816
▁시민들에게	-11.2817
▁힘들었다	-11.2818
그것이	-11.2821
▁위탁	-11.2821
▁변론	-11.2822
▁편리한	-11.2823
▁원료	-11.2824
보는	-11.2825
▁주시기	-11.2828
장기	-11.2828
▁중지	-11.2829
▁임용	-11.2829
함이	-11.2832
▁열망	-11.2835
▁대중	-11.2836
▁모범	-11.2838
▁회장에게	-11.284
▁조명	-11.284
▁했다면	-11.2841
▁평가하는	-11.2844
▁돌아온	-11.2844
▁우리당	-11.2844
▁직원의	-11.2845
▁필요성에	-11.2845
▁솔직히	-11.2847
▁정권은	-11.2847
▁새누리당에	-11.2847
구역	-11.2848
▁시간과	-11.2849
▁사용했다	-11.2852
상황을	-11.2853
▁V	-11.2853
▁내놓았다	-11.2854
▁판단하는	-11.2854
▁처리에	-11.2854
중국과	-11.2854
▁합리적으로	-11.2856
▁상황이었다	-11.2858
▁나서지	-11.286
▁개선하는	-11.286
▁진정으로	-11.2861
▁내부의	-11.2861
▁국가대표	-11.2861
▁LIG	-11.2861
씨도	-11.2861
▁나라에	-11.2862
▁교섭단체	-11.2864
▁생겨	-11.2864
▁전체적인	-11.2866
공격	-11.2868
▁확대하겠다	-11.2868
▁맨유	-11.2869
곳	-11.2869
▁전형적인	-11.2869
▁저소득층	-11.2874
개인적으로	-11.2874
▁45	-11.2875
김대중	-11.2875
▁주기를	-11.2875
▁내놓고	-11.2876
▁국가에서	-11.2876
▁다루는	-11.2878
▁이후로	-11.2878
▁안보에	-11.2878
▁침해하는	-11.2878
세가	-11.2879
▁손으로	-11.288
▁세미나	-11.2881
▁시인	-11.2882
▁대상에	-11.2882
▁소비가	-11.2882
▁해야할	-11.2883
▁악재	-11.2884
▁역할과	-11.2885
본인이	-11.2885
▁동국대	-11.2887
▁실전	-11.2888
▁MOU	-11.2892
법상	-11.2892
▁영원히	-11.2893
▁되는지	-11.2895
▁미수습자	-11.2897
▁매장을	-11.2897
농업	-11.29
절차를	-11.2904
▁못한다면	-11.2906
까봐	-11.2907
▁멕시코	-11.2909
▁끼	-11.291
확인	-11.2911
▁중앙통신	-11.2911
▁청년들이	-11.2913
▁슈틸리케	-11.2916
▁교육과정	-11.2917
▁전역	-11.2919
▁맺은	-11.2923
▁이젠	-11.2925
▁배운	-11.2925
▁분담	-11.2926
▁기초연금	-11.2928
수입	-11.2928
▁거대한	-11.293
▁실시해	-11.293
만원이	-11.2932
▁정하는	-11.2935
▁숙제	-11.2937
▁의하면	-11.2938
▁경제성장률	-11.294
▁주민들에게	-11.294
▁공세	-11.2941
▁맡길	-11.2941
▁꼽았다	-11.2942
▁들어오는	-11.2942
▁돌아왔다	-11.2943
▁피하기	-11.2944
▁양상문	-11.2946
▁놀라운	-11.2946
▁해소하기	-11.2947
▁그치지	-11.2948
▁과다	-11.2948
▁제한하는	-11.2948
▁칼	-11.2949
▁학교폭력	-11.295
하자고	-11.295
▁플러스	-11.295
▁시선	-11.295
▁면제	-11.295
▁협력관계	-11.2951
▁늘어	-11.2951
해주고	-11.2952
▁농담을	-11.2954
▁의견에	-11.2955
▁던지는	-11.2955
▁파는	-11.2956
▁현대경제연구원	-11.2959
롯데	-11.296
답게	-11.296
▁회사채	-11.296
▁김영우	-11.2962
▁공고히	-11.2962
단은	-11.2963
프랑스	-11.2964
▁학생을	-11.2964
▁노력으로	-11.2964
▁후반	-11.2965
▁해봐야	-11.2966
▁창출할	-11.2966
그리고	-11.2967
▁경선에	-11.2969
여기	-11.297
▁소형	-11.2975
▁오해가	-11.2976
흥	-11.2976
정보를	-11.2978
일본이	-11.2979
▁대표적	-11.2982
▁빚	-11.2985
▁각자의	-11.2986
▁집중하겠다	-11.2986
▁재검토	-11.2987
▁바이러스	-11.2987
▁건조	-11.2987
매번	-11.2988
▁종교	-11.2988
▁성원에	-11.2989
▁조정이	-11.299
▁같아서	-11.2991
▁자신감	-11.2994
혼	-11.2996
▁외무성	-11.2997
▁가해	-11.2997
▁활발히	-11.2998
▁정권에	-11.3001
▁한발	-11.3002
▁도약할	-11.3005
친박	-11.3006
▁증가에	-11.3011
▁동아시아	-11.3012
▁생각하며	-11.3012
공항	-11.3014
▁분당	-11.3015
▁가능하도록	-11.3015
▁들여	-11.3017
▁인상에	-11.3018
▁청약	-11.302
▁말하면	-11.3025
▁봄	-11.3026
재판	-11.3026
▁모으고	-11.3028
▁불만	-11.3028
▁죄	-11.3031
▁못했지만	-11.3033
아울러	-11.3036
▁독재	-11.3038
▁15%	-11.3039
▁수수	-11.304
▁극심한	-11.3041
▁생기지	-11.3042
▁포털	-11.3044
▁밤에	-11.3045
▁상상	-11.3047
▁신산업	-11.3048
▁쇼핑몰	-11.3049
▁계약이	-11.3051
▁잠실	-11.3051
▁당원들	-11.3054
겠나	-11.3056
역대	-11.3057
▁입국	-11.3057
▁동지	-11.3058
▁공동의	-11.306
▁진출에	-11.3061
하시는	-11.3067
기록	-11.3068
▁위치를	-11.3068
만원에	-11.3069
▁지나면	-11.3069
대에	-11.3071
▁AP	-11.3073
원장은	-11.3074
▁바뀌고	-11.3074
▁상황이라	-11.3077
▁장학금	-11.308
▁폭이	-11.3084
▁질병	-11.3085
▁서초동	-11.3086
▁밝히겠다	-11.3087
▁성찰	-11.3088
▁운영해	-11.3089
▁막중한	-11.309
▁생계	-11.3093
직원	-11.3093
▁혁신이	-11.3093
▁도서	-11.3101
▁맥	-11.3103
률이	-11.3103
▁투자전략팀장	-11.3106
▁답이	-11.3107
▁우리나라는	-11.3107
해준	-11.3107
▁억지	-11.3109
▁아빠	-11.311
사와	-11.3111
혜	-11.3112
토론	-11.3113
▁잠수함	-11.3115
들로	-11.3115
▁취약계층	-11.3118
▁취하고	-11.3119
▁중계	-11.3121
▁전체에	-11.3123
EU	-11.3124
▁인지	-11.3124
▁차지하고	-11.3126
▁흥행	-11.3126
▁부부	-11.3127
▁질책	-11.3129
▁흔들리지	-11.3132
▁지경부	-11.3132
▁것이지만	-11.3139
▁예상하고	-11.3139
▁적용하는	-11.3141
▁쳤다	-11.3142
▁세워야	-11.3143
▁실적은	-11.3143
솔직히	-11.3146
▁반대를	-11.3146
▁MD	-11.3146
▁방식에	-11.3148
▁필요성	-11.3148
▁분석하고	-11.3149
▁"100	-11.3151
▁부의장은	-11.3152
▁팬들	-11.3153
▁초에	-11.3153
▁창출과	-11.3153
▁마지막까지	-11.3156
▁개인이	-11.3157
▁중재	-11.3157
▁헤지펀드	-11.3159
▁진출한	-11.3159
▁그날	-11.3159
▁죄를	-11.3159
▁되자	-11.316
▁법리	-11.3161
▁지구	-11.3161
▁재료	-11.3162
▁선정된	-11.3164
▁밖에서	-11.3167
▁이루기	-11.317
▁허리	-11.317
▁일본군	-11.3172
겠다고	-11.3173
▁나서겠다	-11.3174
▁옳은	-11.3175
▁개혁과	-11.3176
▁비춰보면	-11.3176
▁녹음	-11.3178
▁공식적인	-11.3179
▁이견	-11.3179
규모	-11.318
▁대형마트	-11.3182
홍보	-11.3182
수원	-11.3183
▁공익	-11.3185
인수	-11.3186
▁전환이	-11.3188
▁편집	-11.3188
▁느끼지	-11.3188
제로	-11.3188
▁돈으로	-11.3189
▁김종	-11.3193
이상	-11.3193
▁뉴	-11.3197
▁목적은	-11.3199
처음에는	-11.3201
▁광	-11.3202
▁요청할	-11.3202
▁롯데마트	-11.3204
▁국정원장	-11.3205
▁기록할	-11.3205
▁고심	-11.3208
▁전형	-11.3209
▁선생님	-11.3209
▁나쁘지	-11.3209
▁직접적으로	-11.3211
▁소홀히	-11.3215
300	-11.3215
▁저가	-11.3216
▁빠졌다	-11.3217
▁주장하며	-11.3221
▁업데이트를	-11.3222
▁상승을	-11.3226
▁고민하는	-11.3228
꽃	-11.3229
▁흐름에	-11.323
▁주석은	-11.3231
70	-11.3234
▁연말까지	-11.3234
▁않았으면	-11.3235
▁경력	-11.3235
▁박근혜정부	-11.3236
FC	-11.3237
▁직권상정	-11.3237
저금리	-11.3238
▁평화의	-11.3238
영국	-11.324
교육을	-11.3242
▁많다는	-11.3244
▁상승에	-11.3245
▁확인하기	-11.3245
▁수행하는	-11.3246
▁퇴임	-11.3247
▁새누리당을	-11.3247
▁논의해야	-11.3248
▁되풀이	-11.3249
바른정당	-11.3253
▁커뮤니케이션	-11.3255
▁소회	-11.3255
디지털	-11.3256
취업	-11.3256
▁지인	-11.3257
▁빠르고	-11.326
▁이만수	-11.326
▁가슴에	-11.326
▁병사	-11.3261
봐야	-11.3262
▁사망한	-11.3264
▁미안하다	-11.3265
▁관	-11.3266
▁말씀이	-11.3266
▁아니지	-11.3268
▁해줘야	-11.3268
▁수사할	-11.3268
▁협정	-11.3271
한국에	-11.3273
28	-11.3276
국민들은	-11.3277
▁규정한	-11.3278
▁존재하는	-11.3281
능력을	-11.3283
▁부를	-11.3283
른	-11.3284
▁재발방지	-11.3284
▁장르	-11.3285
▁600	-11.3286
세금	-11.3287
▁판매하는	-11.3287
▁시장으로	-11.3288
사업에	-11.3292
▁비율을	-11.3292
▁신중히	-11.3294
했다면	-11.3295
▁1500	-11.3297
17	-11.3298
▁실시하는	-11.33
▁시설물	-11.33
▁우려하는	-11.3304
▁소외된	-11.3309
▁외환	-11.331
▁모델이	-11.3312
변경	-11.3314
있게	-11.3315
▁몸에	-11.3315
▁해외진출	-11.3317
▁회사는	-11.3318
당당히	-11.3319
▁조치로	-11.332
▁생각한	-11.3321
국민을	-11.3324
▁활짝	-11.3324
▁갑질	-11.3324
▁천안함	-11.3324
▁민주당과	-11.3325
었고	-11.3331
▁오브	-11.3332
마지막	-11.3333
나라	-11.3333
▁언급하면서	-11.3333
▁면담을	-11.3334
▁사업부	-11.3335
쉬	-11.3335
▁중단하라	-11.3335
▁역사가	-11.3335
▁거쳐야	-11.3335
▁전문가들이	-11.3336
▁고속도로	-11.3337
▁억울한	-11.3337
울산	-11.3338
▁맞	-11.3343
▁오류	-11.3345
인증	-11.3345
▁표현의	-11.3345
▁확대가	-11.3345
▁저하	-11.3353
▁MB	-11.3356
▁맞을	-11.3358
▁환영	-11.336
▁벌어지고	-11.3362
▁CNN	-11.3364
▁이르렀다	-11.3364
▁우려도	-11.3365
엽	-11.3368
▁분석이	-11.3368
▁책임있는	-11.337
▁내놓지	-11.3371
▁정진석	-11.3371
▁체제로	-11.3373
▁남한	-11.3376
경제연구원	-11.3376
▁야당에	-11.3377
▁한강	-11.338
▁떨어진다	-11.3381
▁원천	-11.3383
기존의	-11.3384
▁터키	-11.3386
▁과거사	-11.3387
▁ESPN	-11.3387
▁청소	-11.3388
▁추모	-11.3389
▁참가자들	-11.3391
화가	-11.3392
▁사회주의	-11.3392
▁처벌할	-11.3394
▁부작용을	-11.3395
▁값	-11.3395
때문에	-11.3396
▁기도	-11.3396
▁정신과	-11.3397
▁발표하는	-11.3397
▁비판에	-11.3399
바이오	-11.3399
▁금융상품	-11.34
▁업무보고	-11.34
▁취하지	-11.34
시쯤	-11.3401
선을	-11.3401
지진	-11.3402
▁강세를	-11.3403
▁성장률이	-11.3405
▁공이	-11.3408
▁맛을	-11.3409
되자	-11.341
▁척결	-11.3411
호텔	-11.3411
▁이외	-11.3412
▁열려	-11.3413
▁안전관리	-11.3413
▁학교가	-11.3413
▁어려움	-11.3415
▁신고가	-11.3418
희망	-11.342
수를	-11.3421
▁구형했다	-11.3421
▁연구원도	-11.3425
AI	-11.3425
▁최고위원이	-11.3426
▁피해자와	-11.3427
KT	-11.3427
▁테니	-11.3428
▁급	-11.3429
▁LTE	-11.3429
▁대중교통	-11.343
▁근로자들	-11.3431
▁음주	-11.3432
상황이	-11.3435
놓고	-11.3436
▁왔지만	-11.3438
▁내년에는	-11.3439
▁추진에	-11.344
▁집중해야	-11.3441
▁확	-11.3442
▁발생하면	-11.3445
▁기대감	-11.3446
▁개개인	-11.3448
▁바뀌는	-11.3448
시가	-11.3449
일본은	-11.3449
▁로켓	-11.3449
▁경호	-11.3451
▁필	-11.3452
전날	-11.3452
▁일어나는	-11.3452
▁사태는	-11.3453
▁잡	-11.3453
▁경매	-11.3456
▁있느냐는	-11.3456
▁여신	-11.3458
▁삶이	-11.3458
▁받으며	-11.3459
▁미래부	-11.3459
▁소득이	-11.346
결혼	-11.346
대북	-11.3461
▁마련에	-11.3462
겠냐	-11.3462
▁체감할	-11.3466
반면	-11.3466
▁감독에게	-11.3467
▁욕구	-11.3467
▁나아가야	-11.3467
▁하라는	-11.3467
▁터	-11.347
▁규제개혁	-11.3471
▁예보	-11.3473
모씨는	-11.3474
▁높여야	-11.3476
테러	-11.3476
▁공영방송	-11.3476
당내	-11.3477
▁몰아	-11.3481
님	-11.3482
무슨	-11.3483
▁하냐	-11.3483
대응	-11.3484
▁점진적으로	-11.349
▁이로	-11.349
▁태도가	-11.3491
▁치를	-11.3492
회에	-11.3495
대표팀	-11.3496
▁관련자	-11.3496
경제민주화	-11.3496
▁해양수산부	-11.3497
▁줄어드는	-11.3498
단독	-11.35
▁온다	-11.3503
▁가방	-11.3504
▁국제사회가	-11.3504
▁관료	-11.3504
그리스	-11.3504
▁낮게	-11.3505
▁안보와	-11.3507
▁아쉬움이	-11.3508
▁다했다	-11.3508
▁세운	-11.3509
▁추진한	-11.3509
▁리퍼트	-11.351
총리	-11.3513
▁눈으로	-11.3514
▁양자	-11.3517
▁하나금융	-11.3518
▁파산	-11.3519
▁전통적	-11.3519
▁수준은	-11.352
▁인력이	-11.352
▁세울	-11.352
먼저	-11.3521
베트남	-11.3521
▁신세계	-11.3524
▁벌인	-11.3525
받아	-11.3527
누	-11.3527
▁돌렸다	-11.3531
▁단결	-11.3532
▁살균제	-11.3532
대화	-11.3538
▁사적	-11.3539
▁드리겠다	-11.3539
▁성숙	-11.354
▁바꾸기	-11.3541
▁해소할	-11.3541
▁흑자	-11.3541
▁해소될	-11.3542
▁국정과제	-11.3544
▁공청회	-11.3545
▁접근이	-11.3546
▁복지를	-11.3547
죄	-11.355
▁태양광	-11.3554
▁분기	-11.3558
▁보자	-11.3558
▁축사에서	-11.3559
▁지방자치단체	-11.3561
▁매력을	-11.3561
▁내면	-11.3561
▁신재생에너지	-11.3562
만개	-11.3564
▁친구들	-11.3566
음악	-11.3569
▁배임	-11.3571
▁포장	-11.3574
▁계정	-11.3575
▁주인	-11.3578
▁배송	-11.3584
▁패러다임을	-11.3587
선진국	-11.3589
▁항목	-11.359
▁지지한다	-11.359
▁플랫폼을	-11.3591
▁음주운전	-11.3593
▁부여했다	-11.3593
▁진지한	-11.3594
▁장병	-11.3595
▁추정되는	-11.3595
▁의류	-11.3596
씨에	-11.3597
▁명의로	-11.3598
▁사업과	-11.3599
▁티	-11.3599
▁하나은행	-11.36
▁문건을	-11.3604
▁양상	-11.3605
척	-11.3607
▁규탄한다	-11.3608
둘	-11.3608
▁한수원	-11.3608
▁지혜	-11.361
▁대응해야	-11.3614
▁인권위	-11.3614
득	-11.3615
▁부정한	-11.3615
▁회복에	-11.3616
▁하에서	-11.3617
▁확대로	-11.3619
▁대비해야	-11.3619
상태	-11.3621
▁이유도	-11.3623
▁돌파	-11.3623
▁걱정된다	-11.3624
▁나눈	-11.3624
▁훼손하는	-11.3625
북한과	-11.3626
▁숙였다	-11.3626
▁안전사고	-11.3626
▁포기할	-11.3627
▁예우	-11.3628
▁동계올림픽	-11.3628
경기가	-11.3628
▁김태형	-11.3629
▁그야말로	-11.3631
▁답한	-11.3637
▁메모	-11.3638
주민	-11.3638
방안을	-11.3641
▁역사와	-11.3644
▁농구	-11.3646
▁대기업과	-11.3646
▁역사상	-11.3647
U	-11.3648
▁비대위원장은	-11.3648
▁산업통상자원부	-11.3649
▁매력적인	-11.365
▁납득하기	-11.365
▁경험할	-11.3652
경제적	-11.3652
▁휴가를	-11.3653
▁일부러	-11.3653
▁목소리에	-11.3654
제재	-11.3657
▁부재	-11.3658
▁마약	-11.3662
▁끌어	-11.3662
금액	-11.3662
▁민경욱	-11.3664
▁검사장	-11.3664
현지	-11.3664
▁하이투자증권	-11.3664
▁신고했다	-11.3664
▁다툼	-11.3668
시대	-11.3669
▁언론이	-11.3669
▁여행을	-11.367
▁"2010	-11.3671
E	-11.3672
세를	-11.3674
▁지역과	-11.3674
진짜	-11.3674
▁근간	-11.3675
▁됐지만	-11.3677
▁N	-11.3679
▁아버지가	-11.3681
▁이야기했다	-11.3682
▁떼	-11.3682
▁있겠나	-11.3684
▁말하지	-11.3684
▁무상급식	-11.3686
▁PB	-11.3688
▁본회의에서	-11.3688
대전	-11.3688
▁방미	-11.3688
미디어	-11.3689
▁즐겨	-11.3692
그것은	-11.3693
▁금융산업	-11.3694
만일	-11.3696
▁입단	-11.3696
▁우선순위	-11.3696
▁안정에	-11.3696
되더라도	-11.3697
▁시작되는	-11.3698
▁사랑과	-11.3698
▁민사	-11.3699
▁옳다	-11.3699
▁선진화	-11.3699
▁합당	-11.37
▁실천하는	-11.37
▁YTN	-11.3702
▁구두논평	-11.3702
▁점과	-11.3702
▁집회에	-11.3703
▁중립성	-11.3703
▁사내	-11.3704
▁구하는	-11.3706
▁방향성	-11.3706
축제	-11.3708
▁실패를	-11.3709
▁취하	-11.3709
됐는지	-11.371
▁예로	-11.3711
독특한	-11.3712
자원	-11.3712
▁걸렸다	-11.3712
여전히	-11.3713
▁경찰과	-11.3714
소비	-11.3715
교과서	-11.3715
공개	-11.3718
중심	-11.3719
▁절	-11.372
▁트레이드	-11.3721
▁빠질	-11.3722
▁매뉴얼	-11.3723
▁스위스	-11.3724
▁봐서	-11.3726
▁구간	-11.373
▁역량이	-11.3731
염	-11.3731
수준	-11.3732
▁전후	-11.3734
▁시계	-11.3734
▁취해야	-11.3737
장으로	-11.3738
대통령께서	-11.3739
▁일관된	-11.3739
▁중복	-11.3741
▁어디서	-11.3741
침	-11.3742
▁후속조치	-11.3742
주변	-11.3743
▁체류	-11.3744
▁인사들이	-11.3745
▁관람	-11.3745
▁추구	-11.3746
▁지원하기	-11.3746
장기적으로	-11.3746
▁폭을	-11.3747
▁본부장	-11.3748
▁증설	-11.3749
▁조사해	-11.3749
▁엔	-11.3753
▁높을	-11.3753
▁표현이	-11.3754
▁기대하는	-11.3754
새로	-11.3755
▁의식을	-11.3756
사상	-11.3756
▁부모님	-11.376
▁비꼬았다	-11.376
▁금리인하	-11.376
▁사업으로	-11.3761
▁발표하고	-11.3762
▁UAE	-11.3763
▁유해	-11.3764
▁김정남	-11.3765
▁해외로	-11.3767
▁증거로	-11.3769
아주	-11.377
▁정의로운	-11.3771
7000	-11.3771
▁트	-11.3771
어요	-11.3772
혁명	-11.3772
▁25%	-11.3774
▁보라	-11.3774
▁늦어	-11.378
▁선보이	-11.378
▁기지	-11.378
▁변화하는	-11.3781
식으로	-11.3782
▁2004	-11.3783
▁외치며	-11.3783
자인	-11.3783
▁곡	-11.3785
비정규직	-11.3785
▁펼치고	-11.3785
▁순간에	-11.3786
▁살아가는	-11.3787
▁쏟아	-11.3789
▁생각했는데	-11.3789
14	-11.379
▁남아있는	-11.3791
법안	-11.3792
▁안으로	-11.3793
▁가만히	-11.3794
나중에	-11.3795
▁잃고	-11.3799
▁카카오톡	-11.3801
▁재확인했다	-11.3801
▁프로그램이	-11.3803
▁얘기도	-11.3804
▁대한상의	-11.3805
▁자신과	-11.3805
기대	-11.3808
질서	-11.3809
▁문화체육관광부	-11.3809
▁끊임없는	-11.381
▁유지될	-11.3811
▁장으로	-11.3811
▁이야기는	-11.3811
▁노동계	-11.3813
▁줘	-11.3816
▁다양화	-11.3819
▁하나는	-11.3819
진보	-11.3821
▁조사결과	-11.3822
▁예를	-11.3825
▁절실	-11.3825
▁공급을	-11.3826
▁통신은	-11.3827
▁위원들	-11.3828
현재로선	-11.383
▁해외에	-11.3833
▁의식한	-11.3833
▁들지	-11.3834
국의	-11.3835
▁끝나지	-11.3837
▁레이더	-11.3837
▁산림	-11.3839
▁검찰과	-11.3839
▁이르게	-11.3839
▁만반	-11.3841
▁엄격하게	-11.3841
▁외교안보	-11.3841
▁목사	-11.3842
▁조원진	-11.3843
▁한양대	-11.3844
보상	-11.3845
▁집으로	-11.3846
▁정국	-11.3846
▁실장이	-11.3847
▁좋다고	-11.3849
검	-11.3853
▁상가	-11.3854
▁비판하는	-11.3854
팅	-11.3858
▁잇따라	-11.3858
▁증시에	-11.3859
▁비방	-11.3859
입법	-11.3861
▁창의적	-11.3862
▁일시적으로	-11.3863
▁이해와	-11.3864
▁지금보다	-11.3864
▁재정부	-11.3865
▁잡아야	-11.3867
▁제반	-11.3869
▁사각지대	-11.3869
▁건강하게	-11.3869
▁돕기	-11.387
▁예정돼	-11.387
위기	-11.3871
대부분	-11.3872
초등학교	-11.3874
▁배달	-11.3875
▁부결	-11.3881
▁서서	-11.3882
기사	-11.3884
더민주	-11.3885
반도체	-11.3886
반대	-11.3887
▁반박	-11.3887
▁정당을	-11.3888
▁이와관련	-11.3888
▁의결권	-11.3888
제한	-11.389
▁분산	-11.3891
▁출판	-11.3891
▁감독님	-11.3892
▁통보했다	-11.3892
▁미뤄	-11.3894
▁손님	-11.3894
▁척	-11.3894
▁순서	-11.3895
▁나라에서	-11.3895
▁실세	-11.3896
▁쌓은	-11.3897
▁하려	-11.3897
▁자체는	-11.3899
▁반입	-11.3899
▁세상이	-11.3901
▁인권침해	-11.3902
▁사드배치	-11.3903
▁중이며	-11.3904
마켓	-11.3905
▁지향하는	-11.3906
▁마련됐다	-11.3906
율을	-11.3908
▁규모로	-11.3909
로서는	-11.391
▁상무	-11.391
▁막아	-11.3911
▁처지	-11.3911
▁대기업이	-11.3913
▁원내대변인	-11.3915
▁나갔다	-11.3915
서도	-11.3916
▁상담을	-11.3919
▁화해	-11.392
▁생각된다	-11.3921
▁원금	-11.3922
▁계속해	-11.3922
▁폴	-11.3922
당을	-11.3923
▁부적절하다	-11.3924
▁방식은	-11.3925
▁적게	-11.3925
▁일본은	-11.3926
▁많아서	-11.3927
▁개발할	-11.3927
▁주전	-11.3928
▁비결	-11.3929
▁중단해야	-11.3929
▁관계의	-11.3932
줘	-11.3934
▁보기에	-11.3934
았다	-11.3935
▁일갈했다	-11.3937
▁숙여	-11.3938
▁상인	-11.394
▁인수합병	-11.3943
얼마	-11.3948
▁참여가	-11.3948
▁만족할	-11.3948
▁분할	-11.395
▁활기	-11.3951
지속적인	-11.3951
▁지원은	-11.3953
▁농협은행	-11.3953
▁참고인	-11.3954
▁해주고	-11.3954
참여	-11.3954
▁네덜란드	-11.3954
▁아닐까	-11.3956
▁한국노총	-11.3957
▁중단을	-11.3957
▁법학전문대학원	-11.3958
윈	-11.3959
▁중반	-11.3965
▁갈등과	-11.3965
▁수교	-11.3966
▁신용등급	-11.3968
▁업무상	-11.3969
▁업무가	-11.3969
▁누적	-11.397
▁국무회의에서	-11.3971
▁시행할	-11.3971
▁이외에	-11.3974
▁자율성	-11.3975
▁기대와	-11.3976
▁일관성	-11.3976
▁퇴출	-11.3978
지금의	-11.3978
▁보호하는	-11.3979
▁많기	-11.398
▁합의로	-11.398
▁군이	-11.398
스런	-11.3983
▁국경	-11.3985
▁기각했다	-11.3985
▁건설사	-11.3986
▁재미있는	-11.3986
▁성공했다	-11.3987
▁건강에	-11.3988
▁부양	-11.3988
열심히	-11.3988
▁유명한	-11.3991
▁배정	-11.3993
▁어려움에	-11.3993
▁대학이	-11.3993
▁확인해야	-11.3993
▁국방장관	-11.3994
▁삼성그룹	-11.3996
▁남는	-11.3997
▁수수료를	-11.3997
▁공감한다	-11.3997
법은	-11.3999
▁기쁨을	-11.4
▁강제로	-11.4
▁짜	-11.4002
검증	-11.4003
▁교회	-11.4003
▁사임	-11.4003
▁조직적으로	-11.4005
결과	-11.4005
▁공헌	-11.4008
▁해지	-11.4009
렬	-11.4009
▁한국어	-11.4009
▁경영에	-11.4011
▁패러다임	-11.4011
▁의원들과	-11.4012
▁오염	-11.4013
▁살펴보고	-11.4013
▁상징	-11.4013
▁원내수석은	-11.4014
▁곳도	-11.4014
수요	-11.4016
▁떠올렸다	-11.4016
▁33	-11.4016
▁쓰기	-11.4017
▁올라가	-11.402
▁저지	-11.402
▁동의할	-11.4022
▁급증	-11.4022
▁유기적	-11.4023
▁주장해	-11.4023
▁뛰어넘는	-11.4024
▁영향력이	-11.4025
▁어떻게든	-11.4026
▁밸류에이션	-11.4026
▁압력	-11.4027
▁굳건한	-11.4028
▁논의에	-11.4028
로써	-11.4033
▁증원	-11.4033
▁관해서는	-11.4035
콘텐츠	-11.4036
▁내리고	-11.4036
▁밝혀졌다	-11.4037
▁한정	-11.4038
증세	-11.4038
▁세계가	-11.404
▁파탄	-11.404
▁자유민주주의	-11.404
▁시작한다	-11.404
그러면	-11.4041
준희	-11.4042
장치	-11.4042
▁충족	-11.4044
▁재신임	-11.4047
▁위장전입	-11.4047
▁탄탄한	-11.405
▁출제	-11.405
▁교육과	-11.405
신문	-11.4051
▁구호	-11.4051
▁가결	-11.4053
▁발휘	-11.4056
아베	-11.4059
▁주변에서	-11.4061
▁자랑스러운	-11.4062
▁전하며	-11.4063
여야가	-11.4065
▁시각이	-11.4066
▁절박한	-11.4067
하다보니	-11.4069
당연히	-11.4069
▁공동대표	-11.4069
▁천정배	-11.4071
▁반대했다	-11.4072
▁정쟁	-11.4073
라운드	-11.4074
▁일시	-11.4076
▁질문이	-11.4077
▁않으면서	-11.4077
▁상품과	-11.4079
▁시작해야	-11.4083
▁발표에	-11.4083
자들은	-11.4084
▁제공한다	-11.4085
▁남경필	-11.4085
▁충격이	-11.4086
▁38	-11.4088
▁지나지	-11.4091
▁영업이익이	-11.4091
▁사태와	-11.4096
아동	-11.4099
▁모습에	-11.4101
▁신뢰받는	-11.4105
▁MVP	-11.4105
째	-11.4106
▁일환	-11.4107
▁책임과	-11.4107
월말	-11.4108
▁공포	-11.4109
▁대단한	-11.4109
각종	-11.4111
▁관리하고	-11.4112
▁깨고	-11.4113
쳐	-11.4113
▁발전해	-11.4116
유가	-11.4116
▁연맹	-11.4116
▁실천해	-11.4118
▁되지만	-11.4118
국방	-11.4119
▁재미있게	-11.4119
▁무모한	-11.412
▁무려	-11.412
▁명령을	-11.4122
▁왜곡된	-11.4123
▁제품과	-11.4124
▁기관지	-11.4124
▁앞장서서	-11.4124
▁성과에	-11.4124
▁발견됐다	-11.4124
▁이상한	-11.4126
▁활약	-11.4126
▁지난주	-11.4129
▁미술	-11.413
▁쌓아온	-11.4137
▁뽑아	-11.4137
▁본토	-11.4138
▁엘	-11.4139
농협	-11.414
▁가져	-11.4141
▁상품에	-11.4142
▁비리를	-11.4142
▁유로	-11.4144
▁배치에	-11.4145
▁U	-11.4145
방지	-11.4146
시티	-11.4146
▁고지	-11.4146
▁중순	-11.4146
진다	-11.4149
▁도착한	-11.4149
▁신청한	-11.4149
▁배우는	-11.4149
▁여성은	-11.415
기능	-11.4151
▁의원들을	-11.4152
▁지진이	-11.4155
▁득점	-11.4156
▁끼쳐	-11.4156
▁회고했다	-11.4157
▁대책은	-11.4157
▁첼시	-11.4159
▁떠났다	-11.416
▁이내에	-11.4161
▁부장검사	-11.4162
▁선동열	-11.4163
▁초기에	-11.4164
▁강연에서	-11.4164
▁연구원	-11.4165
▁빼	-11.4166
▁유치원	-11.4166
▁존엄	-11.4169
▁헌재소장	-11.4169
▁클래식	-11.4169
▁새정치	-11.4172
▁이관	-11.4172
▁비서	-11.4172
▁해외시장	-11.4173
▁선행	-11.4174
▁꺼내	-11.4174
▁않으며	-11.4176
사용	-11.4176
▁삼성의	-11.4178
▁고마움	-11.4178
▁수위	-11.4179
▁여러분과	-11.4179
▁꿈이	-11.418
▁당론으로	-11.418
▁발달	-11.4181
p	-11.4181
▁존중한다	-11.4182
▁정면	-11.4182
▁가벼	-11.4183
▁서청원	-11.4184
▁장비를	-11.4186
▁적다	-11.4187
▁엔터테인먼트	-11.4187
▁정동영	-11.4187
▁프로모션을	-11.4188
▁올해도	-11.419
상담	-11.4193
▁접근할	-11.4193
▁유감스럽다	-11.4197
▁임할	-11.4197
국민연금	-11.4198
▁승부를	-11.4199
만대	-11.4199
▁사과와	-11.4199
▁인준	-11.42
▁행사할	-11.4201
수익	-11.4202
▁적기	-11.4202
경남	-11.4204
▁가속화	-11.4204
학회	-11.4206
▁별개로	-11.4206
▁공개하는	-11.4207
▁불펜	-11.4207
▁획정	-11.4208
▁악수	-11.4208
▁코트라	-11.4209
▁해줬다	-11.4211
▁관할	-11.4212
▁왔던	-11.4213
▁국정원은	-11.4214
▁안정성을	-11.4217
▁국가안보	-11.4219
하였다	-11.4219
▁좋아질	-11.4219
착	-11.422
▁확산되고	-11.4221
▁경계했다	-11.4222
▁유족들	-11.4224
환율	-11.4224
▁발전하는	-11.4225
▁그렇다면	-11.4225
▁공무원들	-11.4225
▁건강보험	-11.4226
▁언젠가	-11.4227
▁엔씨소프트	-11.4229
▁L	-11.423
▁사례는	-11.4231
▁계속할	-11.4233
▁음성	-11.4234
민주	-11.4234
▁앞으로의	-11.4235
▁분들도	-11.4236
▁밝혔지만	-11.4237
▁방중	-11.4238
▁하나인	-11.424
▁물이	-11.4242
km	-11.4243
▁동참해	-11.4245
▁제출할	-11.4246
▁꿈꾸는	-11.4247
위원	-11.4248
▁부담으로	-11.4248
▁엔화	-11.4249
▁군수는	-11.4249
▁회원국	-11.4252
▁주석	-11.4252
▁공직선거법	-11.4252
▁오늘의	-11.4252
센	-11.4253
I	-11.4257
▁차라리	-11.4257
▁상임고문	-11.4259
▁유가족들	-11.426
▁간곡히	-11.426
여행	-11.4261
공단	-11.4261
▁지키겠다	-11.4262
▁잃었다	-11.4262
▁인수위	-11.4262
클럽	-11.4263
▁정하고	-11.4263
▁창작	-11.4263
▁떠나는	-11.4263
쪽	-11.4264
▁잘할	-11.4264
▁부자	-11.4264
▁없었을	-11.4264
▁김동철	-11.4264
▁김정은이	-11.4265
조사를	-11.4265
치는	-11.4266
▁책임연구원	-11.4266
▁슈퍼	-11.4267
▁종식	-11.4268
▁늦은	-11.4269
▁판단해야	-11.427
▁대리점	-11.4272
▁OLED	-11.4273
▁사유와	-11.4274
▁핵무기를	-11.4275
▁막론하고	-11.4278
이전	-11.4282
▁타이밍	-11.4282
▁이야기하는	-11.4283
▁전기요금	-11.4283
나무	-11.4286
▁옷	-11.4286
했느냐	-11.4287
▁정치개혁	-11.4287
▁뇌	-11.4289
▁안정된	-11.4291
▁편의	-11.4293
▁선거는	-11.4294
▁말했지만	-11.4297
▁가자	-11.4298
▁구축할	-11.4298
그렇지	-11.4301
▁금호타이어	-11.4301
▁불과한	-11.4301
▁협의회	-11.4303
▁높아지는	-11.4303
▁포퓰리즘	-11.4304
▁선정했다	-11.4304
▁발주	-11.4304
▁김기춘	-11.4305
▁품	-11.4306
▁원론적	-11.4306
▁유독	-11.4308
▁필수적	-11.4308
▁알리기	-11.4308
▁담당자	-11.4309
▁실험을	-11.4309
▁연출	-11.431
▁수사결과	-11.431
▁가공	-11.4311
시기	-11.4311
▁취했다	-11.4312
▁사격	-11.4312
R	-11.4313
가능한	-11.4313
▁직구	-11.4313
▁지원금	-11.4313
양이	-11.4315
▁발탁	-11.4315
전문가	-11.4316
방식	-11.4317
▁통상임금	-11.4318
▁팔아	-11.4321
▁서비스와	-11.4322
▁확보가	-11.4323
▁커진	-11.4323
▁의구심	-11.4323
▁죽을	-11.4325
변호사	-11.4326
▁크	-11.4326
▁거꾸로	-11.4326
▁부가가치	-11.4326
▁모욕	-11.4327
▁봤는데	-11.4328
▁구할	-11.4328
▁성관계	-11.433
▁700	-11.4332
▁수출을	-11.4334
▁설치해	-11.4334
▁때만	-11.4337
▁사생활	-11.4339
▁맞물려	-11.4339
▁세력을	-11.4341
▁친구가	-11.4342
▁방송에서	-11.4343
▁과열	-11.4343
▁반하는	-11.4345
바로	-11.4345
▁선발로	-11.4346
▁취	-11.4348
지역의	-11.4349
▁지정학적	-11.4351
치료	-11.4353
가량	-11.4355
▁거주하는	-11.4356
▁삼성생명	-11.4356
▁그렇다고	-11.4356
▁뜻에	-11.4358
▁KTX	-11.4359
▁압력이	-11.4361
▁오늘날	-11.4362
▁함부로	-11.4364
▁보수를	-11.4364
범행	-11.4366
▁800	-11.4366
이씨가	-11.4367
▁정도에	-11.4367
▁받아들였다	-11.4367
▁반영될	-11.4367
코스피	-11.4369
▁정당으로	-11.437
▁패권	-11.4371
▁원활하게	-11.4371
▁시장경제	-11.4373
디자인	-11.4374
▁둬야	-11.4377
액이	-11.4377
▁달에	-11.4378
▁투자는	-11.438
TF	-11.438
▁좋아졌다	-11.4381
▁심각성	-11.4383
▁주부	-11.4386
▁활발	-11.4386
▁상실	-11.4388
▁태평양	-11.4389
▁소통할	-11.439
▁찬반	-11.439
▁정치는	-11.4391
▁선보이는	-11.4394
▁총체적	-11.4394
▁소관	-11.4394
▁거부권	-11.4395
▁낙하산	-11.4396
▁사실로	-11.4396
▁문제점이	-11.4397
▁안전처	-11.44
▁국방위	-11.4401
표를	-11.4402
▁상을	-11.4403
▁하나대투증권	-11.4403
▁지하	-11.4404
▁참석자들	-11.4406
▁주호영	-11.4406
▁남성은	-11.4406
▁제임스	-11.4407
▁이재용	-11.4409
셀	-11.4415
▁유능한	-11.4416
법률	-11.442
청와대는	-11.4423
▁입장과	-11.4424
▁방안은	-11.4424
▁논평	-11.4429
▁중장기적으로	-11.4431
수도	-11.4431
▁접촉을	-11.4433
▁받았던	-11.4433
서민	-11.4435
▁청사	-11.4435
▁코치	-11.4436
▁뽑는	-11.4438
▁시나리오	-11.4438
▁치유	-11.4438
▁최소화하기	-11.4439
200	-11.444
▁거리를	-11.4441
시위	-11.4442
▁모를	-11.4442
▁우려스럽다	-11.4443
원칙	-11.4443
▁혼신	-11.4445
▁나오자	-11.4446
▁잘못한	-11.4447
▁국립	-11.4448
▁그릇	-11.4448
▁대사관	-11.4449
▁박찬호	-11.4452
▁마주	-11.4452
▁소문이	-11.4452
▁연일	-11.4453
▁대권	-11.4453
▁"2009	-11.4454
룡	-11.4455
배당	-11.4455
만명이	-11.4455
▁냄새	-11.4457
▁지속해	-11.4459
▁날로	-11.4459
차전	-11.446
▁하셨다	-11.4461
26	-11.4462
▁병원에서	-11.4462
▁무대에	-11.4466
▁넓혀	-11.4466
▁창출하는	-11.4467
▁결과물	-11.4468
▁걸림돌이	-11.4468
▁설명한	-11.4471
▁폭로	-11.4472
아마	-11.4472
경기도	-11.4472
방문	-11.4473
정치를	-11.4477
▁문화와	-11.4477
▁손쉽	-11.4478
▁네거티브	-11.4479
▁재심	-11.4481
매각	-11.4481
▁넣고	-11.4483
김씨는	-11.4484
섬	-11.4484
고등학교	-11.4485
▁도쿄	-11.4487
학부	-11.4488
29	-11.449
▁무관한	-11.4491
전화	-11.4491
▁남북한	-11.4492
▁유형	-11.4492
▁반기문	-11.4492
▁동의하지	-11.4495
▁중요하고	-11.4495
▁설명할	-11.4499
▁확산될	-11.4499
▁혹시	-11.4502
▁구단의	-11.4505
▁법정에	-11.4506
▁불균형	-11.451
▁받았을	-11.4511
▁겨우	-11.4511
▁맨	-11.4512
▁경질	-11.4514
▁들며	-11.4514
▁드린	-11.4516
▁특수활동비	-11.4518
합	-11.452
▁위원장과	-11.452
▁IPO	-11.4521
▁재판부에	-11.4521
아이폰	-11.4522
▁신한	-11.4523
▁무대에서	-11.4523
▁운송	-11.4526
▁후회	-11.4528
▁보호하고	-11.4528
▁지장이	-11.4529
▁대표로서	-11.453
▁개발하는	-11.4532
민주주의	-11.4532
▁논의한	-11.4534
▁32	-11.4536
▁은행들	-11.4536
▁패턴	-11.4537
▁사무처장은	-11.4537
▁장관도	-11.4537
▁매달	-11.4538
▁기온	-11.4539
국정원이	-11.454
▁의욕	-11.4541
군사	-11.4543
▁인상은	-11.4544
▁솔루션을	-11.4546
▁떠날	-11.4547
▁분야는	-11.4548
임금	-11.4548
▁이뤄지도록	-11.4548
▁제게	-11.4549
▁아직은	-11.455
▁도착	-11.4551
프로그램	-11.4552
▁실질	-11.4554
하듯	-11.4555
▁상생의	-11.4556
▁필요하면	-11.4557
론을	-11.4558
▁단기간에	-11.4559
▁기상	-11.4559
▁적발	-11.4562
원의	-11.4563
외국	-11.4565
▁이끈	-11.4566
▁내세워	-11.4567
▁느껴진다	-11.4568
▁있기에	-11.4569
▁뭔지	-11.4569
▁비슷하다	-11.4569
▁제시해	-11.457
▁파리	-11.4572
▁마이클	-11.4573
▁됐다는	-11.4573
▁탈출	-11.4574
▁박사	-11.4577
▁0	-11.4577
▁유지를	-11.4577
▁회생	-11.4578
▁동의한다	-11.4579
▁객관적으로	-11.458
된다는	-11.458
대는	-11.458
▁도와달라	-11.4581
▁인플레이션	-11.4582
▁행동은	-11.4583
▁거치지	-11.4584
여년	-11.4585
▁형식으로	-11.4587
▁멤버	-11.4587
▁기술은	-11.4588
▁피고인의	-11.4588
▁잡힌	-11.4589
▁흥미	-11.459
▁대응책	-11.459
▁밝히면서	-11.4592
▁독려했다	-11.4592
▁바닥	-11.4592
▁리서치	-11.4593
▁늘면서	-11.4595
▁고시	-11.4595
▁생활비	-11.4596
▁폐해	-11.4596
▁종합적	-11.4599
▁구두	-11.4599
▁불리	-11.4601
▁해결이	-11.4601
▁격리	-11.4601
▁장기적	-11.4602
▁사저	-11.4602
회사의	-11.4602
▁에이전트	-11.4603
▁통장	-11.4603
▁세무조사	-11.4604
▁행장	-11.4605
▁사과의	-11.4605
▁투수가	-11.4606
회를	-11.4608
▁위협했다	-11.4608
▁머니투데이	-11.4608
▁움직일	-11.461
▁접속	-11.4612
물을	-11.4612
▁엄격히	-11.4612
▁사라졌다	-11.4613
▁상품으로	-11.4613
▁최고위에서	-11.4614
▁해준	-11.4614
위의	-11.4615
▁낮추는	-11.4615
▁내려야	-11.4616
▁관심사	-11.4616
▁선거제도	-11.4617
투자자	-11.4618
웨이	-11.4618
▁고집	-11.4619
▁가능했다	-11.4621
톤	-11.4622
개월이	-11.4622
▁발전소	-11.4624
▁직접적	-11.4625
▁데서	-11.4626
해지고	-11.4628
▁영웅	-11.4628
▁시절에	-11.4628
하니까	-11.4628
지난번	-11.463
▁수석연구원	-11.463
▁현대상선	-11.463
▁보낸다	-11.4631
▁쉬	-11.4631
▁뉴스쇼	-11.4632
▁안심	-11.4632
▁합의는	-11.4632
▁모멘텀이	-11.4633
▁마당에	-11.4637
▁자유와	-11.4639
취	-11.464
▁서민금융	-11.464
▁역점	-11.4643
▁도덕성	-11.4644
▁창원	-11.4646
▁땅에	-11.4647
▁조씨는	-11.4648
고령화	-11.4648
▁이대로	-11.4648
▁필요하지만	-11.4649
▁이해하는	-11.4649
▁빈곤	-11.4649
▁공권력	-11.465
▁구축하는	-11.465
▁사회적으로	-11.4652
부처	-11.4653
느라	-11.4653
가정	-11.4653
▁처우	-11.4657
▁설명회	-11.4658
▁출신이	-11.4658
▁수령	-11.4658
금을	-11.466
▁탈세	-11.4661
▁받았지만	-11.4662
▁종합해	-11.4662
▁시술	-11.4662
▁육아	-11.4663
독도	-11.4663
촛불	-11.4664
정책과장은	-11.4665
▁불출석	-11.4666
▁공지	-11.4668
▁원정	-11.4669
설비	-11.467
▁경쟁사	-11.4673
▁그렇고	-11.4674
▁신영증권	-11.4674
▁무관하게	-11.4675
▁특화	-11.4676
▁개선되고	-11.4684
▁안타까움	-11.4684
▁시민사회	-11.4684
눈	-11.4685
▁일들	-11.4688
▁ELS	-11.4689
▁지속해서	-11.4693
▁국민들과	-11.4693
▁대표팀에	-11.4695
▁영국의	-11.4696
풀	-11.4697
▁대한축구협회	-11.4697
재난	-11.4697
▁논의했다	-11.4698
▁않았다고	-11.47
농	-11.47
인구	-11.4702
▁항의했다	-11.4702
▁빌	-11.4703
▁분배	-11.4703
▁이뤘다	-11.4704
청문회	-11.4705
▁낮춰	-11.4706
▁의심을	-11.4709
▁정치인이	-11.4709
▁잠재적	-11.4711
▁홈플러스	-11.4711
▁리스트	-11.4713
▁대출이	-11.4713
▁세종	-11.4714
▁원리	-11.4714
▁사건에서	-11.4715
▁여기는	-11.4716
차관은	-11.4718
▁기업가치	-11.4719
▁따르는	-11.4719
저의	-11.4721
▁하겠지만	-11.4722
엄마	-11.4722
▁오기	-11.4724
하더라	-11.4725
심의	-11.4725
▁인구가	-11.4727
등을	-11.4728
안이	-11.4728
금융지주	-11.4728
▁출판사	-11.4729
▁병행	-11.473
▁뮤지컬	-11.4731
▁보여주기	-11.4732
▁생각해서	-11.4732
▁유도하는	-11.4732
▁않더라도	-11.4734
▁현대중공업	-11.4734
▁상승이	-11.4736
▁메일	-11.4737
▁곳곳에	-11.4738
▁중요한데	-11.4738
되었으면	-11.4739
▁잘하고	-11.4739
▁장시간	-11.4739
▁아들의	-11.474
▁승리의	-11.4741
▁밝혀질	-11.4741
한중	-11.4742
▁가리지	-11.4742
팀의	-11.4742
▁대승적	-11.4744
▁폭넓게	-11.4744
위험	-11.4745
▁근로시간	-11.4745
▁작용	-11.4746
▁자율적으로	-11.4746
▁유리하다	-11.4747
▁형제	-11.475
시키겠다	-11.4751
사업의	-11.4751
▁횟수	-11.4751
늘	-11.4752
▁일괄	-11.4753
손금주	-11.4753
▁드	-11.4753
코스닥	-11.4755
▁적법한	-11.4756
▁선도해	-11.4757
▁맡았던	-11.476
▁지적하고	-11.476
▁범인	-11.4761
▁튼튼한	-11.4761
실적	-11.4761
▁됐던	-11.4762
▁의총에서	-11.4763
음을	-11.4764
▁관계자들	-11.4764
검토	-11.4765
공간	-11.4766
▁푼	-11.4767
폰	-11.4768
되기를	-11.4768
▁참배	-11.477
▁거절	-11.4771
▁섬	-11.4772
▁활성화와	-11.4774
▁경제적으로	-11.4774
▁권력의	-11.4776
▁버렸다	-11.4777
주간	-11.4779
연맹	-11.478
▁뭐라고	-11.478
▁자립	-11.4781
▁성추행	-11.4782
하냐	-11.4782
▁자산운용사	-11.4783
▁혁신안	-11.4784
▁후보들이	-11.4784
통제	-11.4784
▁개혁은	-11.4787
전환	-11.4789
▁설치된	-11.4789
▁신분으로	-11.479
▁주목할	-11.479
▁정당하다	-11.4791
물가	-11.4793
고교	-11.4793
차기	-11.4794
▁숨	-11.4796
▁가족들에게	-11.4797
대표는	-11.4797
▁국산	-11.4798
기획	-11.4798
▁도입한	-11.4799
▁대우조선해양	-11.4803
▁있거나	-11.4803
▁편이	-11.4804
▁모시고	-11.4805
여명이	-11.4806
경쟁력	-11.4806
▁충실한	-11.4809
▁사장의	-11.481
▁선택의	-11.4811
▁들어왔다	-11.4812
▁선동	-11.4812
▁참여하지	-11.4813
당에서	-11.4814
▁시세	-11.4814
▁결정적인	-11.4814
▁증가와	-11.4817
브라질	-11.482
▁IoT	-11.4821
하이닉스	-11.4821
▁존중하는	-11.4822
▁느끼게	-11.4824
거래소	-11.4825
▁계획하고	-11.4825
▁전망에	-11.4825
▁경쟁에서	-11.4826
▁상태였다	-11.4826
▁존경	-11.4831
▁경희대	-11.4832
형이	-11.4833
▁성희롱	-11.4834
▁송금	-11.4835
▁던져	-11.4837
▁개발이	-11.4837
▁표현한	-11.484
▁예방을	-11.4841
체제를	-11.4845
▁6000	-11.4845
월드컵	-11.4849
▁하태경	-11.4849
▁제기하는	-11.4851
▁높았다	-11.4851
▁삼성이	-11.4852
만원씩	-11.4854
▁풍성한	-11.4854
채널	-11.4857
고객의	-11.4859
▁LED	-11.486
▁천안	-11.486
▁중시하는	-11.4861
객	-11.4862
▁음료	-11.4862
▁선수다	-11.4864
▁대리인	-11.4865
▁차원이	-11.4867
▁방지하기	-11.4868
▁수요자	-11.4869
▁도구	-11.4869
▁김민석	-11.4873
▁납득	-11.4874
▁유망	-11.4874
공원	-11.4875
▁김영란법	-11.4875
▁생일	-11.4876
모임	-11.4877
▁최저	-11.4877
▁몰려	-11.4879
▁다각적	-11.4879
▁이때	-11.488
▁우파	-11.4881
▁다섯	-11.4881
▁관계자들이	-11.4885
▁기소된	-11.4887
▁앞세워	-11.4888
▁논리를	-11.4889
▁대한민국은	-11.4891
▁용납하지	-11.4892
▁일과	-11.4892
▁특화된	-11.4892
▁데이비드	-11.4892
▁커지는	-11.4895
▁노동조합	-11.4896
▁농성	-11.4897
▁개선해야	-11.4899
▁리더십이	-11.49
▁관광객이	-11.49
자본	-11.4901
▁신형	-11.4902
유지	-11.4904
▁감당할	-11.4907
환자	-11.4908
협약	-11.4908
▁물음에	-11.4909
▁받으면서	-11.4909
▁존재하지	-11.491
▁남는다	-11.491
▁미소를	-11.491
▁이재명	-11.4911
▁가능하게	-11.4911
▁법정관리	-11.4911
관은	-11.4912
▁대목	-11.4912
녀	-11.4913
▁구호를	-11.4914
▁유감스럽게	-11.4915
▁경기회복	-11.4915
올해도	-11.4916
▁피칭	-11.4918
▁리콜	-11.4921
이번에는	-11.4922
▁만들지	-11.4922
▁삼아야	-11.4923
▁견인	-11.4925
▁열차	-11.4929
▁괜찮다	-11.4929
▁각오	-11.493
▁할아버지	-11.4933
▁국제적인	-11.4933
대통령과	-11.4934
매출	-11.4935
▁합당한	-11.4936
▁밀	-11.4937
사법부	-11.4938
이와	-11.4938
▁건수	-11.4938
▁비율	-11.494
▁회원들	-11.494
▁주장과	-11.494
이던	-11.4941
팬	-11.4942
무분별한	-11.4943
▁성립	-11.4947
▁꼴	-11.4948
▁말문을	-11.4948
▁강씨는	-11.4948
▁생각과	-11.4949
▁정유라	-11.4949
▁도민	-11.495
▁위임	-11.4953
그럴	-11.4953
▁결심했다	-11.4954
▁하여금	-11.4954
▁번에	-11.4954
▁드렸다	-11.4956
▁촛불집회	-11.4956
▁맞대고	-11.4958
월드	-11.4958
▁당헌	-11.4959
최소한	-11.496
▁KTB	-11.496
▁화물	-11.496
▁신조	-11.4962
샤	-11.4962
▁오후에	-11.4962
▁통계청	-11.4963
▁급등	-11.4963
▁부모가	-11.4963
▁대표단	-11.4963
▁위험성이	-11.4964
▁전달하고	-11.4964
부실	-11.4964
리스크	-11.4965
집단	-11.4967
▁결합	-11.4968
▁선택했다	-11.4968
31	-11.4969
어서	-11.497
됐다고	-11.4974
▁보니까	-11.4974
▁협의할	-11.4974
▁철학을	-11.4975
지침	-11.4975
▁광복	-11.4976
▁방송에	-11.4977
▁되겠느냐	-11.498
▁펀드를	-11.4982
▁헌법을	-11.4982
▁부족했다	-11.4983
▁다음주	-11.4984
▁바른정당과	-11.4985
▁진도	-11.4987
할지	-11.4988
▁발사한	-11.4989
▁부처가	-11.499
▁창업자	-11.499
▁발언과	-11.4992
▁따를	-11.4993
▁코드	-11.4993
▁애국	-11.4993
순위	-11.4994
▁재해	-11.4995
▁자체로	-11.4996
▁일부는	-11.4997
▁이루	-11.4997
▁고액	-11.4998
▁영장전담	-11.4998
▁물었고	-11.4998
▁끝이	-11.4998
리는	-11.5
▁쓰	-11.5001
경기를	-11.5002
절대	-11.5003
▁BBC	-11.5005
무조건	-11.5005
▁관철	-11.5006
대책을	-11.5006
여부를	-11.5007
▁민심이	-11.5007
▁높다는	-11.5007
▁단계로	-11.5009
▁공작	-11.501
하실	-11.5011
감을	-11.5012
▁상승으로	-11.5012
▁삶에	-11.5014
당은	-11.5014
인들이	-11.5014
▁주최한	-11.5015
▁판례	-11.5017
▁성취	-11.5018
▁한국경제	-11.5018
▁아니라면	-11.5018
▁본관	-11.5019
▁않겠지만	-11.502
▁인가	-11.5021
▁중소기업과	-11.5026
후보자	-11.5027
▁참담한	-11.5027
▁구단에	-11.5027
텐데	-11.503
▁않아야	-11.503
▁재편	-11.5032
▁당해	-11.5033
▁장악	-11.5033
▁류현진은	-11.5033
▁기재	-11.5037
▁해보고	-11.5038
▁전세	-11.5038
▁허가를	-11.5038
▁평택	-11.5039
▁기대하기	-11.5041
▁SM	-11.5043
▁바뀌어야	-11.5044
▁손흥민	-11.5044
▁법적인	-11.5044
▁브렉시트	-11.5046
제대로	-11.5048
▁이번에도	-11.5048
▁서구	-11.5048
▁친일	-11.505
▁증권업계	-11.5051
▁홈런을	-11.5052
▁패널	-11.5054
▁사용을	-11.5055
▁요청해	-11.5057
▁인성	-11.5058
▁탈락	-11.5058
▁원칙적으로	-11.5058
▁메	-11.506
▁투입해	-11.5061
▁종류	-11.5061
▁도입할	-11.5062
▁용납	-11.5063
▁정상회담에서	-11.5064
▁참가자	-11.5064
▁힐난했다	-11.5064
▁꼼꼼하게	-11.5066
▁정씨	-11.5066
▁편법	-11.5068
▁뭐냐	-11.5068
▁감소했다	-11.507
▁진행한다	-11.5071
▁불통	-11.5074
▁라면	-11.5074
▁종결	-11.5075
▁반전	-11.5077
▁호텔에서	-11.5077
▁판매량	-11.5078
▁중심을	-11.508
▁주소	-11.508
경찰은	-11.508
▁너	-11.5081
▁밀어	-11.5082
▁정신으로	-11.5084
▁막상	-11.5084
▁밝힌다	-11.5085
전기	-11.5087
▁유의해야	-11.509
▁위증	-11.509
▁있어서도	-11.5091
▁편안하게	-11.5092
▁무시	-11.5094
▁안될	-11.5095
소송	-11.5096
▁물질	-11.5096
가치	-11.5097
최근에는	-11.5099
▁직원들은	-11.5101
▁조용히	-11.5102
▁흡연	-11.5102
▁탄력	-11.5103
냈다	-11.5103
▁애초	-11.5103
▁회	-11.5104
▁65	-11.5104
캠프	-11.5108
▁있겠냐	-11.5108
▁과일	-11.5109
▁공언했다	-11.511
▁과실	-11.5111
▁임종룡	-11.5112
장애	-11.5113
▁교육에	-11.5113
▁나가서	-11.5113
▁기한	-11.5114
▁원활히	-11.5116
▁공소사실	-11.5116
▁인민	-11.5118
▁모금	-11.5119
▁것이라면	-11.5119
▁학업	-11.5122
▁만찬	-11.5123
▁헌법재판관	-11.5123
▁중요하다는	-11.5123
권이	-11.5126
▁데뷔	-11.5127
▁누구를	-11.5128
년과	-11.5129
▁벌일	-11.5129
▁이해한다	-11.5129
▁벗어난	-11.5129
▁맞추기	-11.513
▁본격화	-11.513
▁맥락	-11.5131
▁이하의	-11.5133
▁물량을	-11.5134
▁이송	-11.5134
센터장은	-11.5135
▁영역에서	-11.5136
들과의	-11.5136
▁과태료	-11.5138
▁진작	-11.5138
▁국감에서	-11.514
▁혈세	-11.514
▁투자해	-11.5142
▁사외이사	-11.5143
▁벌어졌다	-11.5143
▁스스로를	-11.5144
공약	-11.5144
훈련을	-11.5146
죽	-11.5146
▁상권	-11.5148
성호	-11.5149
됐으며	-11.5151
▁쌓아	-11.5151
▁밝혔고	-11.5152
수학	-11.5152
▁해병대	-11.5152
▁정론관	-11.5153
▁옆	-11.5154
새누리당의	-11.5154
▁일이라고	-11.5154
▁유안타증권	-11.5154
▁종전	-11.5154
▁보도한	-11.5157
▁정무수석	-11.5157
국내외	-11.5157
▁합의해	-11.5157
▁북핵문제	-11.5159
아직은	-11.516
▁제품들	-11.5163
▁범행으로	-11.5163
▁가지는	-11.5163
▁안산	-11.5163
아버지	-11.5165
▁증언을	-11.5166
▁실시했다	-11.5166
슈	-11.5166
▁급식	-11.5168
▁엄벌	-11.517
▁이론	-11.517
▁운영이	-11.517
▁충청	-11.5171
▁유지해야	-11.5172
홈런	-11.5173
▁견조	-11.5173
구글	-11.5174
▁참작했다	-11.5176
▁미래지향적	-11.5177
머리	-11.5178
아이들이	-11.5178
▁시선집중	-11.5179
▁덕분	-11.5181
▁신기술	-11.5182
▁확률이	-11.5182
▁얻게	-11.5182
▁애도	-11.5183
▁위성	-11.5185
작업	-11.5185
▁투구	-11.5186
▁수원시	-11.519
소재	-11.519
▁단체는	-11.5192
23	-11.5192
▁실력이	-11.5193
▁갖췄다	-11.5194
▁주위	-11.5196
▁내리	-11.5198
▁컨디션이	-11.5198
▁재선	-11.5199
▁부당하다	-11.5202
▁회피	-11.5203
▁유기	-11.5203
▁청장	-11.5204
▁관계기관	-11.5207
▁편안한	-11.5208
▁애로사항	-11.5209
중학교	-11.5209
▁타격이	-11.521
▁번호	-11.5212
아들	-11.5213
도발	-11.5215
법적	-11.5216
▁이익에	-11.5216
▁활용하고	-11.5218
▁가볍지	-11.522
자로서	-11.522
▁요청하는	-11.522
▁담았다	-11.5223
▁아기	-11.5223
▁모으는	-11.5224
▁달라졌다	-11.5226
이럴	-11.5229
▁구조조정이	-11.5229
▁초선	-11.5231
▁구단이	-11.5231
▁지지자	-11.5232
▁우수성을	-11.5233
전이	-11.5233
성적	-11.5234
▁예고	-11.5234
▁삼는	-11.5234
▁가능해	-11.5236
▁단절	-11.5237
장의	-11.5237
▁비록	-11.5237
▁협조할	-11.524
▁흔적	-11.524
면세점	-11.5242
▁연평도	-11.5243
▁필요해	-11.5244
s	-11.5245
▁언니	-11.5245
▁가볍게	-11.5246
▁말라는	-11.5248
▁대신해	-11.525
▁청원	-11.525
위원회는	-11.525
▁편지를	-11.5255
▁신차	-11.5255
되는데	-11.5257
▁엄중하게	-11.5258
▁장난	-11.5258
▁회복세를	-11.5259
▁줄어들고	-11.526
▁통로	-11.5261
▁나타나지	-11.5263
▁악의적	-11.5263
▁방침이다	-11.5266
▁고충	-11.5266
▁위주	-11.5266
▁업체에	-11.5267
▁우려되는	-11.5267
▁대리	-11.5267
▁건국	-11.5268
▁짓는	-11.5268
▁고양	-11.5269
▁문화재	-11.527
▁생활에	-11.527
▁비서실장이	-11.5271
▁파문	-11.5273
▁무인기	-11.5273
▁겪었다	-11.5273
▁한민구	-11.5274
▁윤리	-11.5275
▁대우조선	-11.5276
▁한달	-11.5277
▁없느냐	-11.528
기존에	-11.5283
▁근로자의	-11.5283
▁훼손했다	-11.5283
▁관점	-11.5284
1000	-11.5284
▁참여했다	-11.5285
▁사교육	-11.5287
▁원만	-11.5288
년만에	-11.5288
▁경각심	-11.5289
▁있었기에	-11.5291
▁좌절	-11.5291
▁인원이	-11.5291
▁미친다	-11.5292
▁일각	-11.5292
자료를	-11.5294
▁기본권	-11.5294
▁제명	-11.5296
▁반발하고	-11.5299
▁재무구조	-11.5301
갔다	-11.5302
▁체크	-11.5303
▁분들과	-11.5304
▁종이	-11.5305
▁영양	-11.5306
▁뒤에는	-11.5307
네트워크	-11.5308
▁동일	-11.5309
▁말과	-11.5309
▁지금이라	-11.531
▁실종	-11.531
원에	-11.5311
지표	-11.5311
례	-11.5312
▁전임	-11.5312
▁무능	-11.5312
▁태	-11.5315
조작	-11.5315
▁성균관대	-11.5315
▁연기금	-11.5315
▁바라보고	-11.5315
▁대형주	-11.5315
▁롯데백화점	-11.5315
▁속으로	-11.5316
▁남기고	-11.5317
가구	-11.5317
W	-11.532
임기	-11.532
▁비주류	-11.5322
▁발굴하고	-11.5323
▁나가면	-11.5325
세요	-11.5327
▁쌍용차	-11.5328
▁주체가	-11.5332
▁의뢰	-11.5332
▁남의	-11.5332
▁치켜세웠다	-11.5333
큐	-11.5333
복합	-11.5333
▁추가적으로	-11.5334
▁찾아볼	-11.5335
▁연주	-11.5336
▁지난해보다	-11.5337
▁서비스에	-11.5337
▁사항에	-11.5337
▁파일	-11.5338
▁한참	-11.5338
▁비교할	-11.534
내년에도	-11.5342
▁고부가가치	-11.5343
▁물품	-11.5344
상황	-11.5344
▁마디	-11.5348
▁매력이	-11.5349
▁오르고	-11.5351
▁저런	-11.5352
▁누리꾼	-11.5354
됐으나	-11.5355
▁갖출	-11.5355
▁푸는	-11.5356
▁살펴볼	-11.5356
▁접근해야	-11.5357
▁보완해	-11.5358
▁평가한	-11.5358
해선	-11.5359
▁상장을	-11.5359
아무	-11.5362
부상	-11.5362
▁사람들도	-11.5363
▁유지하면서	-11.5363
▁여당은	-11.5364
▁조금만	-11.5364
사람이	-11.5366
▁배후	-11.5366
▁맞다고	-11.5366
▁회의록	-11.5367
▁콘서트	-11.5367
비서	-11.5369
▁지검장	-11.5369
▁없	-11.537
▁지속되는	-11.5371
▁이어갔다	-11.5372
줘서	-11.5373
▁관세청	-11.5374
선언	-11.5375
▁공고	-11.5376
▁측도	-11.5376
▁빅	-11.5377
▁전문가인	-11.5383
▁안착	-11.5383
▁힘써	-11.5384
CJ	-11.5386
▁의심이	-11.5387
▁진전이	-11.5387
▁관련기사	-11.5387
▁총리와	-11.5389
▁자사고	-11.5389
▁중간에	-11.5389
▁남성이	-11.539
▁접근성	-11.5391
▁성숙한	-11.5391
▁연임	-11.5391
설계	-11.5391
자에	-11.5392
노선	-11.5392
▁시간이었다	-11.5392
▁출자	-11.5393
▁순환출자	-11.5395
▁초반에	-11.5395
▁멘토	-11.5398
▁진상조사	-11.5398
합병	-11.5399
▁했느냐	-11.5399
▁청소년들이	-11.54
▁많았는데	-11.5401
▁문화적	-11.5403
기간이	-11.5405
▁환경영향평가	-11.5405
▁밀접한	-11.5406
▁행정관	-11.5407
▁묵묵히	-11.5407
▁두지	-11.5408
▁나라와	-11.5408
▁의약품	-11.5409
▁시공	-11.541
▁노력은	-11.5411
▁미르	-11.5412
▁의무화	-11.5412
▁듣기	-11.5413
▁유럽의	-11.5413
▁주목해야	-11.5414
▁유예	-11.5415
▁지지층	-11.5415
▁돌아와	-11.5416
▁지주회사	-11.5416
이들이	-11.5419
▁이상은	-11.5419
▁곳곳에서	-11.542
▁방송사	-11.5422
▁사고에	-11.5422
▁기점으로	-11.5424
▁쉽다	-11.5424
▁건넨	-11.5424
▁우회적으로	-11.5424
▁아동학대	-11.5425
▁지금처럼	-11.5426
▁급락	-11.5426
▁놓치지	-11.5426
▁시기는	-11.5427
▁구태	-11.5427
▁사람에	-11.5428
▁하나씩	-11.543
▁임신	-11.5431
마치	-11.5432
▁정상이	-11.5432
▁농사	-11.5433
▁받았는데	-11.5433
▁저렇게	-11.5433
양의	-11.5434
▁유지했다	-11.5436
▁졌다	-11.5437
▁대통령제	-11.5438
▁명분	-11.5441
▁범죄행위	-11.5442
▁그에게	-11.5442
▁패	-11.5444
▁가로	-11.5444
처분	-11.5445
-1	-11.5446
▁복귀를	-11.5448
▁정무위원회	-11.5449
▁신동빈	-11.5449
▁평화통일	-11.5449
▁역전	-11.5449
▁발로	-11.5451
▁내어	-11.5451
▁관찰	-11.5451
센터를	-11.5452
▁바뀌지	-11.5452
▁뻔	-11.5455
▁벌이는	-11.5456
잠	-11.5458
▁이하로	-11.5459
▁경과	-11.546
▁제조사	-11.546
▁게임에	-11.5461
▁협의하고	-11.5463
▁범행에	-11.5464
명에게	-11.5466
분을	-11.5467
▁살포	-11.5467
▁월급	-11.5468
▁퇴직연금	-11.5468
디스플레이	-11.547
홍준표	-11.5472
▁달성하기	-11.5472
공연	-11.5473
감시	-11.5474
▁반성과	-11.5475
▁색다른	-11.5476
▁우려하고	-11.5477
▁보도된	-11.5479
▁벌어질	-11.5479
▁기술로	-11.5481
화재	-11.5483
▁투자자들에게	-11.5484
높은	-11.5485
▁유전자	-11.5486
▁나오는데	-11.5487
물이	-11.5487
▁국장	-11.5487
▁패스	-11.5487
휘	-11.5487
▁출동	-11.5489
▁상하이	-11.5494
▁강조하면서	-11.5494
▁내세운	-11.5494
▁실현하기	-11.5497
▁갖기	-11.5498
▁성범죄	-11.55
부담	-11.5502
단기	-11.5506
▁거기서	-11.5507
▁포기하는	-11.5508
▁송환	-11.5509
▁4%	-11.551
▁다름	-11.5511
▁전시회	-11.5512
▁할머니는	-11.5514
▁범죄가	-11.5514
▁취지에서	-11.5514
▁신년사에서	-11.5515
▁야권연대	-11.5515
▁실사	-11.5516
▁많았지만	-11.5516
주로	-11.5517
국이	-11.5517
▁억울함	-11.5519
▁누락	-11.5519
▁와중에	-11.552
▁태도로	-11.5521
년차	-11.5522
▁동해	-11.5523
▁성장성	-11.5525
▁제외	-11.553
▁전까지는	-11.5531
▁조성해	-11.5531
▁기가	-11.5531
계파	-11.5531
▁국가들이	-11.5532
▁연관	-11.5534
▁대우증권	-11.5536
▁받들어	-11.5536
▁등장	-11.5539
▁다름없다	-11.554
▁축구협회	-11.5541
▁야간	-11.5542
▁위하여	-11.5543
▁공유할	-11.5543
당한	-11.5545
경북	-11.5545
벤처	-11.5545
▁전략으로	-11.5546
인재	-11.5547
▁벌였다	-11.5549
▁저작권	-11.555
▁한때	-11.5551
▁끝나	-11.5552
▁진행하게	-11.5555
▁증명	-11.5556
▁의해서	-11.5556
▁비박	-11.5558
국회는	-11.5558
▁지지도	-11.5559
수는	-11.5562
▁속여	-11.5563
▁불쾌감	-11.5563
▁통진당	-11.5565
▁완공	-11.5566
▁부담감	-11.5568
벽	-11.5569
▁준공	-11.5573
▁넣은	-11.5575
▁알아	-11.5579
▁증여	-11.558
▁보람을	-11.5581
특별한	-11.5581
▁수행해	-11.5582
▁출범한	-11.5582
▁사고와	-11.5585
▁극단적인	-11.5585
▁단독으로	-11.5585
▁연이어	-11.5587
사에서	-11.5589
잘못된	-11.559
▁디자인을	-11.5593
▁연예인	-11.5596
▁동양증권	-11.5596
▁성장한	-11.5597
▁해결되지	-11.5598
▁집중력	-11.56
▁이곳에서	-11.56
▁중남미	-11.5601
▁총리실	-11.5601
▁재기	-11.5601
▁팀에서	-11.5601
청구	-11.5605
이긴	-11.5607
▁기반한	-11.5607
▁겪을	-11.5609
▁연료	-11.561
▁왔을	-11.561
회장은	-11.561
▁중단할	-11.561
▁뜻깊은	-11.5611
▁주주들	-11.5612
▁얘기하고	-11.5612
집행	-11.5614
▁불안감이	-11.5614
▁소화	-11.5616
▁회견에	-11.5617
▁방법에	-11.5617
▁지점장	-11.5618
▁그러지	-11.5618
▁삼겠다	-11.5619
▁데도	-11.5619
▁부탁을	-11.5622
▁시범	-11.5622
▁장군	-11.5622
▁일부가	-11.5622
▁비과세	-11.5623
▁주민은	-11.5624
▁김용	-11.5624
▁정수	-11.5625
▁의제	-11.5625
▁미래에셋대우	-11.5625
▁경기는	-11.5627
했음을	-11.5628
▁36	-11.5629
▁런던	-11.5629
▁남녀	-11.5629
▁안전보장이사회	-11.5629
▁영남	-11.563
▁인센티브	-11.563
인들의	-11.5632
▁굳건히	-11.5633
경제가	-11.5635
갤럭시	-11.5635
▁긴축	-11.5637
일에도	-11.5637
▁제소	-11.5637
▁거절했다	-11.5637
▁전국적으로	-11.5638
▁전쟁이	-11.5639
▁보장하고	-11.564
수업	-11.564
▁밸런스	-11.5642
▁폭탄	-11.5643
특별	-11.5643
▁정리해	-11.5644
▁번역	-11.5645
▁청소년들	-11.5647
▁용	-11.5647
▁기여한	-11.5651
▁실현할	-11.5651
▁것만	-11.5653
사단	-11.5655
▁쪽이	-11.5656
법원	-11.5658
▁거뒀다	-11.566
▁늘어났다	-11.566
▁지방정부	-11.5662
▁에너지를	-11.5662
▁광범위한	-11.5662
▁국제사회에	-11.5663
▁돌파구	-11.5663
수수료	-11.5665
▁장벽	-11.5671
▁회동에서	-11.5672
▁팬들은	-11.5674
▁불안이	-11.5674
▁주자	-11.5676
기술을	-11.5676
▁크리스마스	-11.5679
▁던지	-11.5681
▁초부터	-11.5681
▁일치	-11.5682
▁딸을	-11.5682
▁방위	-11.5683
▁단식	-11.5683
국내에서	-11.5685
▁대금	-11.5686
금감원	-11.5686
▁방침에	-11.5686
랩	-11.5687
▁열겠다	-11.5687
▁계승	-11.5688
▁병원으로	-11.5688
▁인테리어	-11.569
▁대화록	-11.569
▁주가에	-11.5691
▁화두	-11.5696
하셨다	-11.5699
▁전한	-11.57
▁학생과	-11.5702
▁벗어날	-11.5703
영상	-11.5703
▁정도면	-11.5703
었지만	-11.5703
점검	-11.5704
▁후임	-11.5704
▁선수와	-11.5705
▁교사가	-11.5708
▁해소하는	-11.5708
원인	-11.5709
▁회복하고	-11.571
▁협력사	-11.5711
품질	-11.5712
▁체결한	-11.5714
▁버전	-11.5714
컨설팅	-11.5715
▁평등	-11.5715
▁비롯된	-11.5716
▁지속적	-11.5716
사전	-11.5719
▁오픈프라이머리	-11.5719
▁입사	-11.5722
예를	-11.5722
보장	-11.5723
▁믿지	-11.5724
▁지도부는	-11.5725
▁타당성	-11.5726
▁맞출	-11.5726
▁전국이	-11.5728
▁말씀드릴	-11.5729
▁아우르는	-11.5729
▁투자한	-11.573
▁회장에	-11.5731
▁치킨	-11.5731
미국에서	-11.5731
▁효율	-11.5733
작업을	-11.5733
▁비공개로	-11.5734
▁있는데도	-11.5735
▁말씀드린다	-11.5735
▁맹	-11.5735
▁회담에서	-11.5736
▁W	-11.5738
▁독자적	-11.5739
▁공공성	-11.574
▁잇는	-11.574
▁공표	-11.574
▁경고를	-11.5742
호선	-11.5742
▁현지화	-11.5744
▁정치권에	-11.5744
▁출신으로	-11.5745
▁매출액은	-11.5746
차례에	-11.5748
▁실물	-11.5749
▁핵실험과	-11.5749
▁샀다	-11.575
▁이에대해	-11.5751
▁거론	-11.5751
▁했으며	-11.5751
당국	-11.5751
▁평가에	-11.5752
▁불편함	-11.5752
단이	-11.5752
▁수사로	-11.5753
▁전반을	-11.5754
응	-11.5754
▁같고	-11.5754
▁취재진에게	-11.5755
▁전폭적	-11.5756
▁표명한	-11.5757
▁발부했다	-11.5759
▁해석이	-11.5759
▁수준인	-11.576
동안	-11.5761
▁국민의당과	-11.5762
▁브리핑	-11.5762
▁던지고	-11.5764
▁투자로	-11.5764
▁통합에	-11.5764
구매	-11.5764
타격	-11.5765
▁챙기는	-11.5766
▁발언했다	-11.5766
▁결집	-11.5766
▁주택담보대출	-11.5768
▁여성들이	-11.577
▁조사와	-11.5772
▁여성을	-11.5772
▁명복을	-11.5774
▁상당부분	-11.5775
▁의존도	-11.5775
▁시켜	-11.5775
▁금융지원	-11.5776
▁정할	-11.5777
김현정	-11.5779
▁애널리스트	-11.5779
▁모자라	-11.578
▁직책	-11.578
▁가려	-11.5781
▁개선방안	-11.5782
진정한	-11.5783
▁외화	-11.5783
▁세력과	-11.5783
▁핵탄두	-11.5784
▁생각하느냐	-11.5785
▁차가	-11.5786
▁컨텐츠	-11.5786
▁가치관	-11.5789
▁시작될	-11.5789
▁특성에	-11.579
▁대회에서	-11.5791
▁한반도에	-11.5793
▁주도하고	-11.5795
▁남측	-11.5796
▁대책에	-11.5797
▁외국계	-11.5797
▁농담	-11.5798
▁넘어갈	-11.5799
▁홀로	-11.5801
▁사실도	-11.5801
▁걸리는	-11.5802
개별	-11.5802
▁우려와	-11.5802
▁치열하게	-11.5803
▁외면하고	-11.5803
▁보답	-11.5803
▁녹색	-11.5806
회장	-11.5807
부족	-11.5809
▁대회에	-11.581
▁머물	-11.5811
행위를	-11.5811
▁전망이다	-11.5812
▁지급하는	-11.5812
▁하면서도	-11.5813
제도가	-11.5813
▁잣대	-11.5814
▁요금제	-11.5815
▁쓰레기	-11.5816
▁계열	-11.5818
압	-11.5818
▁몰라	-11.5819
▁섰다	-11.5821
국민의당이	-11.5821
▁용산	-11.5823
▁종합대책	-11.5824
▁몽골	-11.5827
▁요구되는	-11.5827
▁가습기	-11.5827
▁전환하는	-11.5828
▁입장문	-11.5831
▁매물	-11.5831
▁검증된	-11.5831
▁예측했다	-11.5832
▁출처	-11.5832
▁연극	-11.5832
▁유저들의	-11.5833
인프라	-11.5833
▁뒤에서	-11.5834
보다도	-11.5834
▁싶어서	-11.5835
▁색깔	-11.5835
▁개최된	-11.5836
▁있	-11.5837
▁김치	-11.5837
▁얻지	-11.5838
▁김모씨	-11.5838
▁매니저	-11.5838
박근혜정부	-11.5841
상호	-11.5843
▁무관하다	-11.5845
계좌	-11.5846
▁세금으로	-11.5847
▁안정성	-11.5847
▁나왔는데	-11.5848
▁못했다는	-11.5849
▁해나갈	-11.5851
▁느껴	-11.5852
▁1·2	-11.5853
▁가능하고	-11.5855
▁공화당	-11.5856
금융회사	-11.5857
▁마켓	-11.5857
▁행자부	-11.5858
▁이슈에	-11.586
▁반응	-11.5862
▁이유다	-11.5862
▁합	-11.5864
▁변하지	-11.5865
▁함으로써	-11.5867
식을	-11.5867
▁확인하지	-11.5869
▁치매	-11.5869
▁기록하고	-11.5869
재판부	-11.587
▁비춰볼	-11.587
▁선에서	-11.587
▁전무	-11.5872
아이가	-11.5873
▁선보인	-11.5873
▁박주선	-11.5874
현저히	-11.5874
▁성사	-11.5875
▁돌입	-11.5876
▁밝	-11.5879
▁상주	-11.588
▁공간으로	-11.5882
▁브랜드의	-11.5883
▁뒤에도	-11.5884
▁변호	-11.5884
▁인명	-11.5885
▁블로그	-11.5886
▁컨센서스	-11.5887
▁보장을	-11.5887
▁늘려야	-11.5888
▁신청했다	-11.589
▁받아들이기	-11.5891
지난주	-11.5893
▁쳐	-11.5893
은행의	-11.5894
▁고장	-11.5895
▁섭취	-11.5895
▁지방선거에서	-11.5897
규정	-11.5898
세력	-11.5899
▁결과와	-11.5899
▁유용한	-11.59
▁들어간다	-11.5902
▁신선한	-11.5903
▁팀장	-11.5905
▁살펴	-11.5905
▁참모	-11.5905
▁카지노	-11.5908
▁발전이	-11.5908
▁만들겠다는	-11.5908
법인세	-11.5908
▁드러내	-11.591
▁광장	-11.5911
폭력	-11.5914
▁대통합	-11.5915
▁34	-11.5915
▁지금이	-11.5916
▁힘들게	-11.5917
▁공무원이	-11.5917
▁평창올림픽	-11.5917
▁경제발전	-11.5919
▁발령	-11.5919
내수	-11.5919
▁공부하는	-11.592
▁선례	-11.5922
▁대통령으로서	-11.5925
▁당시에	-11.5926
▁유세에서	-11.5928
▁좌우	-11.5928
▁UN	-11.5928
▁만든다	-11.5929
정신	-11.593
▁소음	-11.593
▁소요	-11.593
▁반영하고	-11.593
▁계기	-11.5931
▁공천권	-11.5931
▁감각	-11.5932
▁이야기할	-11.5934
▁대대적인	-11.5935
▁재임	-11.5935
▁상품은	-11.5935
▁부행장은	-11.5938
과연	-11.5938
▁경제학과	-11.594
매일	-11.594
▁조화를	-11.594
▁접견	-11.5941
▁중소기업에	-11.5941
▁우량	-11.5941
해양	-11.5942
▁가깝다	-11.5943
▁영세	-11.5943
▁유니폼을	-11.5944
▁평소에	-11.5944
▁분류	-11.5948
▁직면한	-11.5949
▁유저들이	-11.595
▁우발적	-11.5953
▁감사한다	-11.5954
하우스	-11.5954
비용을	-11.5956
▁구속된	-11.5956
저와	-11.5957
협	-11.5957
▁실천할	-11.5959
사업이	-11.5959
▁법률적	-11.596
▁이뤄지면	-11.5961
▁살펴보면	-11.5962
▁바르셀로나	-11.5962
▁저변	-11.5964
▁물꼬	-11.5965
▁부장판사	-11.5967
라인	-11.5967
▁하소연했다	-11.5967
▁조회	-11.5969
자유	-11.5972
▁본선	-11.5972
대부분의	-11.5974
▁구매할	-11.5975
분간	-11.5976
▁무장	-11.5978
▁것이냐는	-11.5978
▁아버지는	-11.5978
60	-11.5981
▁설명하는	-11.5981
▁대응하겠다	-11.5982
▁가치에	-11.5982
▁일어나고	-11.5984
▁최선	-11.5984
▁일한	-11.5986
▁궁금하다	-11.599
▁서울행정법원	-11.5991
▁기억에	-11.5991
놓은	-11.5994
▁공범	-11.5994
주일	-11.5995
▁대변하는	-11.5999
▁흡수	-11.6
▁비교하면	-11.6001
▁덕에	-11.6001
▁화면	-11.6002
▁내려놓고	-11.6002
▁실업	-11.6003
▁당정청	-11.6004
법원의	-11.6005
▁진압	-11.6005
소위	-11.6006
▁유통업계	-11.6006
▁공원	-11.6007
▁미쳤다	-11.6008
동의	-11.601
조원이	-11.6012
경찰의	-11.6012
▁전산	-11.6012
▁알았는데	-11.6014
▁올리기	-11.6015
▁위협하고	-11.602
심리	-11.602
연구소장	-11.6023
사인	-11.6023
할수록	-11.6024
▁승객들	-11.6028
▁웹	-11.6028
현장에	-11.6029
하느라	-11.6029
▁대부분은	-11.6031
▁숫자가	-11.6031
예방	-11.6032
▁해야지	-11.6032
▁검토하는	-11.6035
▁저평가	-11.6035
▁공통	-11.6036
▁잘못됐다	-11.6036
하다는	-11.6037
▁CNBC	-11.6038
▁만만치	-11.6038
위원장	-11.604
▁동아리	-11.6041
▁업무협약	-11.6043
김무성	-11.6044
▁의혹은	-11.6045
대신	-11.6045
강남	-11.6046
▁기록이	-11.6046
▁성격을	-11.6047
▁축적	-11.6048
최악의	-11.6048
마저도	-11.605
▁출근	-11.605
▁효율적	-11.6053
▁명분이	-11.6055
▁체감	-11.6056
▁않기를	-11.6057
해주신	-11.6057
▁설립을	-11.6058
▁당면한	-11.6058
▁선호도	-11.6059
▁'3	-11.606
해달라고	-11.6061
▁밝혀진	-11.6061
▁어디까지	-11.6062
▁받아들여지지	-11.6062
▁후원금	-11.6064
▁명심해야	-11.6064
▁하고자	-11.6066
▁노릇	-11.6066
▁폭언	-11.6066
▁지적하자	-11.6067
▁단위로	-11.6067
▁편견	-11.6068
▁공개하고	-11.6069
▁자진사퇴	-11.607
타운	-11.6072
▁친구들이	-11.6073
종목	-11.6073
▁주요국	-11.6076
많이	-11.6079
▁헌법재판소장	-11.6079
야권	-11.6083
▁낮추고	-11.6083
▁농어촌	-11.6085
▁일이지만	-11.6086
▁맺고	-11.6087
▁미룰	-11.6088
▁도와주는	-11.6088
되게	-11.6088
▁경향	-11.6089
▁니즈를	-11.609
▁보좌관	-11.6091
▁개최한	-11.6092
▁화장실	-11.6092
▁넘었다	-11.6092
▁진출이	-11.6093
▁승용차	-11.6093
▁대세	-11.6095
오전	-11.6095
▁상세	-11.6095
▁원내지도부	-11.6097
▁신성장	-11.6099
▁신장	-11.61
▁쓴소리	-11.61
▁마음은	-11.6101
과학기술	-11.6101
▁MC	-11.6103
▁만들면	-11.6103
▁박주영	-11.6104
▁그러	-11.6104
▁수요에	-11.6104
▁농장	-11.6105
▁학생들과	-11.6109
▁모순	-11.611
▁건설을	-11.6111
나가야	-11.6111
▁투자하고	-11.6112
▁낮출	-11.6112
▁용서를	-11.6112
▁지내	-11.6112
▁작품이	-11.6112
▁월드	-11.6113
▁의도는	-11.6113
▁기용	-11.6114
▁2019	-11.6116
▁학력	-11.6116
나머지	-11.6118
▁급하게	-11.6118
넷	-11.6118
▁고민해	-11.6118
▁보수가	-11.6119
▁인사말에서	-11.6121
▁도피	-11.6121
서류	-11.6122
▁통합과	-11.6122
▁운용사	-11.6122
▁제공했다	-11.6123
▁포함되지	-11.6124
▁페	-11.6124
콘	-11.6125
▁도출	-11.6127
▁식량	-11.6127
▁정식으로	-11.6128
▁복수의	-11.6128
호주	-11.613
▁신부	-11.6131
▁챔피언스리그	-11.6131
▁줄어	-11.6132
▁청문회에	-11.6133
▁빛	-11.6134
▁창조적	-11.6134
▁전략적으로	-11.6135
탑	-11.6136
▁못해서	-11.6137
없다	-11.6139
▁배우자	-11.6139
▁묻겠다	-11.6139
▁체결했다	-11.614
▁브랜드가	-11.614
▁민의	-11.614
▁모아서	-11.6141
▁싸워	-11.6141
씨로부터	-11.6142
일자	-11.6142
▁투자심리	-11.6143
돼서	-11.6143
▁이석기	-11.6144
▁공백이	-11.6145
▁절실한	-11.6145
▁우정	-11.6146
▁조직문화	-11.6147
▁넘은	-11.6147
▁감독님이	-11.6148
▁이슈를	-11.6148
▁문제들을	-11.6151
▁나가지	-11.6152
▁이해해	-11.6152
언제	-11.6153
조치를	-11.6153
▁게임으로	-11.6154
▁회사에서	-11.6155
▁상징적	-11.6157
▁헌법과	-11.6157
▁협력하고	-11.6159
킹	-11.6159
▁항변했다	-11.6162
▁시급히	-11.6164
▁사령관은	-11.6166
▁조성하는	-11.6168
▁도입하는	-11.6168
앞서	-11.617
▁연결하는	-11.617
▁도전하는	-11.617
▁회사로	-11.6172
준혁	-11.6173
▁수사하고	-11.6173
▁이뤄진다	-11.6174
▁결정으로	-11.6174
단을	-11.6177
▁이해찬	-11.6177
▁갖다	-11.6178
▁운영위	-11.6181
맥	-11.6181
▁보직	-11.6183
▁소망	-11.6184
▁달러화	-11.6185
탕	-11.6185
테크	-11.6187
▁예의주시하고	-11.6188
▁인천공항	-11.6188
▁장씨는	-11.6188
▁면밀하게	-11.6189
▁닭	-11.6189
J	-11.619
투수	-11.6191
▁준비된	-11.6191
▁소문	-11.6192
의무	-11.6192
▁역량과	-11.6192
담배	-11.6193
버렸다	-11.6193
수비	-11.6194
▁선출된	-11.6195
▁이번엔	-11.6197
▁무료로	-11.62
▁미래로	-11.62
▁추진될	-11.6201
▁자랑	-11.6201
▁위력	-11.6204
▁언급하지	-11.6205
밭	-11.6208
▁눈높이	-11.6209
▁분위기는	-11.6209
▁힘차게	-11.621
▁극복해	-11.6211
▁어선	-11.6212
▁좋아한다	-11.6212
은퇴	-11.6212
▁이춘석	-11.6213
▁중견기업	-11.6213
▁호남의	-11.6214
▁했더니	-11.6215
▁없애	-11.6215
이익	-11.6216
구속	-11.6216
▁움직임에	-11.6217
▁"18	-11.6217
▁싼	-11.6218
▁지방분권	-11.6218
▁남편이	-11.6219
▁펼쳤다	-11.622
▁맞추는	-11.622
▁전술	-11.6221
▁넘겨	-11.6221
▁다양하고	-11.6221
▁반발이	-11.6222
모델	-11.6222
▁통합이	-11.6222
▁편지	-11.6223
전남	-11.6223
▁월세	-11.6224
▁사과문	-11.6225
능력이	-11.6226
▁표기	-11.6226
▁받아들여야	-11.6226
▁관리와	-11.6228
년동안	-11.6229
▁여파	-11.6231
▁한마디로	-11.6232
▁시한	-11.6233
▁힘쓸	-11.6235
▁타당하다	-11.6235
▁개혁안	-11.6238
휴	-11.6239
▁긴장감	-11.6239
▁주승용	-11.624
▁총재가	-11.624
칼	-11.6244
▁지장	-11.6246
▁몰래	-11.6247
대학원	-11.6247
▁흔들	-11.6247
▁보험업계	-11.6249
▁법치주의	-11.6251
▁경사	-11.6251
▁기술의	-11.6252
▁출당	-11.6254
▁자격증	-11.6254
▁동의했다	-11.6254
▁오른쪽	-11.6255
▁가치는	-11.6257
▁선점	-11.6257
단기적으로	-11.6259
▁기동민	-11.626
사고가	-11.626
▁집중하는	-11.626
▁중앙일보와	-11.626
내년에	-11.626
분기부터	-11.6261
▁지방자치	-11.6261
싱	-11.6263
▁싸울	-11.6264
▁쥐고	-11.6265
▁젊은이들	-11.6265
▁과목	-11.6266
비로소	-11.6267
어떠한	-11.6267
▁못했을	-11.6268
▁양적	-11.6268
▁채워	-11.6268
▁"2007	-11.627
▁은행장은	-11.627
내용	-11.6271
▁표정으로	-11.6271
▁대치	-11.6272
▁흐리고	-11.6273
남북관계	-11.6275
국가의	-11.6275
▁용의자	-11.6275
▁허락	-11.6277
▁기름	-11.6277
▁철	-11.6278
▁명동	-11.6278
▁오게	-11.6281
▁우리금융	-11.6282
▁되니	-11.6283
▁가능성과	-11.6285
▁대체할	-11.6285
▁공수처	-11.6287
▁미래에셋증권	-11.6289
▁오승환	-11.6289
▁지도부와	-11.629
▁필요한데	-11.629
▁윤상현	-11.6291
▁유보	-11.6292
▁한데	-11.6292
주신	-11.6293
▁뛰	-11.6294
▁파악한	-11.6296
▁정유	-11.6297
건물	-11.6297
기본	-11.6298
부모	-11.63
▁정체성	-11.63
멈추지	-11.6302
▁되겠다는	-11.6302
▁비서실장은	-11.6304
▁가뭄	-11.6307
▁탈원전	-11.6308
▁교보증권	-11.6309
▁과정은	-11.631
요소	-11.6311
▁떨	-11.6313
▁보더라도	-11.6314
▁한국형	-11.6315
▁박모씨는	-11.6318
▁여러분들이	-11.6319
▁하드웨어	-11.6319
▁무력화	-11.6321
뉴	-11.6321
▁잠재력이	-11.6321
▁내서	-11.6322
▁에이스	-11.6324
▁오피스텔	-11.6325
▁원칙으로	-11.6327
▁생산하는	-11.6329
▁현황을	-11.6334
▁일정한	-11.6334
중국에서	-11.6335
▁박범계	-11.6336
지게	-11.6336
쌀	-11.6338
▁만나고	-11.6338
▁초유의	-11.6339
▁다해달라	-11.6341
적어도	-11.6345
▁구름이	-11.6345
여건	-11.6346
행동	-11.6346
▁소개한	-11.6348
▁고비	-11.6351
▁전망한다	-11.6352
지역에서	-11.6352
▁탑재	-11.6353
▁유행	-11.6353
일정	-11.6354
▁계획대로	-11.6355
▁소득세	-11.6356
▁조문	-11.6356
▁하락할	-11.6357
과정을	-11.6357
가스	-11.6358
▁전국에	-11.6361
▁보답하겠다	-11.6363
▁한편으로	-11.6364
▁송구스럽다	-11.6364
▁받았다고	-11.6365
▁증가율	-11.6365
▁한글	-11.6366
▁순수	-11.6366
국민은	-11.6367
▁종사자	-11.6368
▁금방	-11.6369
이닝	-11.6371
▁행	-11.6373
하므로	-11.6373
▁세력의	-11.6375
최고	-11.6376
▁개각	-11.6376
▁쉴	-11.6377
▁건강과	-11.6377
▁축하한다	-11.6378
▁마스크	-11.6379
▁지시로	-11.6381
▁사형	-11.6382
▁번씩	-11.6382
▁촉구하는	-11.6384
▁약물	-11.6384
▁안된다는	-11.6385
▁없었지만	-11.6385
▁협력과	-11.6387
▁않자	-11.6387
원장	-11.6387
▁조성에	-11.6388
▁보석	-11.639
▁탑승	-11.639
▁답변이	-11.6392
▁그쳤다	-11.6393
▁치른	-11.6394
▁어머니는	-11.6396
▁하늘	-11.6399
▁부르는	-11.64
대한민국은	-11.6401
어진	-11.6401
▁컨트롤	-11.6402
▁제기되는	-11.6404
▁대책위	-11.6405
▁하반기부터	-11.6406
▁어르신	-11.6407
제작	-11.6408
▁사실이라면	-11.6408
▁잠재	-11.6408
▁주도해	-11.6408
▁입에	-11.6409
▁교재	-11.6409
공부	-11.641
▁직원들과	-11.6411
▁무산	-11.6411
▁기억하고	-11.6412
▁대학을	-11.6415
▁걱정하지	-11.6416
▁청탁을	-11.6416
▁언제까지	-11.6417
▁법률에	-11.6419
▁건너	-11.6419
▁스마트폰을	-11.6419
▁고령	-11.642
발생	-11.642
▁간단한	-11.6423
십	-11.6425
▁콜	-11.6425
▁항공사	-11.6426
▁활동하는	-11.6428
나마	-11.6429
▁도서관	-11.643
▁청주	-11.643
▁창의	-11.643
▁그칠	-11.643
▁땅을	-11.6431
▁저장	-11.6431
▁통신사	-11.6433
▁원내대표에게	-11.6433
골을	-11.6434
▁대입	-11.6434
현재로서는	-11.6436
▁신청할	-11.6438
▁합동참모본부	-11.6438
평생	-11.6438
국가가	-11.6438
▁이번이	-11.6439
▁경험한	-11.6441
▁도입에	-11.6441
▁걱정했다	-11.6442
중동	-11.6443
▁의도로	-11.6444
▁인센티브를	-11.6445
▁오전에	-11.6446
▁대비할	-11.645
▁목적에	-11.6452
▁바라며	-11.6452
▁내신	-11.6455
점이	-11.6456
▁임직원이	-11.6457
▁공략	-11.6457
승을	-11.6458
▁용서	-11.6458
▁순차적	-11.6458
푸	-11.6458
▁복귀할	-11.6458
▁강조해	-11.646
▁핵심적인	-11.6462
▁감소한	-11.6463
▁애로	-11.6463
▁논란은	-11.6464
▁기술력과	-11.6464
▁맞추고	-11.6467
회의를	-11.6467
▁주인이	-11.6468
▁구성이	-11.647
▁신한카드	-11.6472
▁삼성은	-11.6472
▁것만으로	-11.6472
▁외형	-11.6473
▁연준의	-11.6475
▁예결위	-11.6475
드릴	-11.6475
닷컴	-11.6475
▁규탄	-11.6477
▁경력을	-11.6478
▁환율이	-11.6481
▁다하지	-11.6481
▁앱을	-11.6482
▁대국	-11.6482
▁경기지사	-11.6486
▁긴장이	-11.6486
▁미치	-11.6486
▁못박았다	-11.6487
▁적힌	-11.6487
▁공방	-11.6487
▁의심스럽다	-11.6488
▁판매량이	-11.6488
▁당선된	-11.6489
▁이밖에	-11.6492
▁밑거름이	-11.6493
▁추측	-11.6494
▁맡겨	-11.6495
▁하든	-11.6498
▁높아져	-11.6499
못	-11.6501
어린이	-11.6502
▁파악하는	-11.6503
▁의미는	-11.6504
▁사과해야	-11.6504
▁주장도	-11.6505
자연	-11.6506
▁김영	-11.6507
본부장	-11.6508
사무소	-11.6509
▁금강산	-11.6509
▁둘째	-11.6511
▁하신	-11.6513
▁생기고	-11.6513
▁순조롭게	-11.6514
▁TPP	-11.6515
▁주택시장	-11.6517
▁협조가	-11.6518
▁김성수	-11.6519
공무원연금	-11.652
▁특강	-11.6522
▁넘는다	-11.6525
▁무선	-11.6525
▁북남관계	-11.6526
▁이르다	-11.6528
류현진이	-11.6531
▁우리나라에서	-11.6532
▁모은	-11.6532
▁공존	-11.6533
▁비용으로	-11.6536
생각	-11.6537
▁수호	-11.6537
▁가능하다고	-11.6544
▁열쇠	-11.6544
▁수행하고	-11.6545
▁않았다면	-11.6545
▁깨	-11.6546
▁김진욱	-11.6546
▁연습을	-11.6547
채용	-11.6547
교류	-11.6547
▁노조가	-11.6548
▁경제지표	-11.6548
▁주행	-11.6549
분기에는	-11.655
▁영업정지	-11.655
▁매출은	-11.6551
▁가능하다는	-11.6552
▁후배들에게	-11.6552
▁구하기	-11.6553
발을	-11.6554
▁일시적	-11.6555
▁개선하기	-11.6555
홈	-11.6558
▁마시고	-11.6561
작년에	-11.6563
증거	-11.6563
▁다룰	-11.6566
▁명성	-11.6566
▁평가해	-11.6568
▁의원직	-11.6569
▁종목을	-11.6569
▁"15	-11.657
▁제도와	-11.657
▁실체적	-11.6571
▁2003	-11.6571
▁경고한다	-11.6571
▁접점	-11.6571
▁보장할	-11.6572
▁캐	-11.6572
▁NHN	-11.6572
▁점검할	-11.6574
▁만일	-11.6574
▁초청해	-11.6575
▁부상자	-11.6575
▁고금리	-11.6576
▁때일수록	-11.6576
▁바쁜	-11.6579
▁병원을	-11.6579
▁야권의	-11.6579
▁은행에	-11.658
▁만들자	-11.6583
▁대표해	-11.6584
▁욕	-11.6585
▁개정안이	-11.6585
▁일탈	-11.6588
▁발견했다	-11.6588
▁박광온	-11.6589
학습	-11.6589
▁안타까워했다	-11.6591
▁화폐	-11.6591
▁가족에게	-11.6591
▁통과한	-11.6591
▁국제적으로	-11.6593
▁무서운	-11.6594
속히	-11.6594
▁상황인데	-11.6596
▁놀	-11.6596
▁흘러	-11.6596
램	-11.6596
조원에	-11.6596
▁갖는다	-11.6597
사이버	-11.6603
▁학교의	-11.6603
증시	-11.6604
목표	-11.6604
▁헌법상	-11.6606
저성장	-11.6606
▁원조	-11.6606
시행	-11.6607
▁총리에게	-11.6609
▁헌법적	-11.661
▁옛날	-11.6611
남조선	-11.6612
▁수백	-11.6612
▁끼칠	-11.6615
▁겸허히	-11.6616
▁믿음이	-11.6616
▁최적화된	-11.6617
▁발견되지	-11.6618
재원	-11.6619
▁사장을	-11.6619
▁오너	-11.6619
▁다각화	-11.662
▁승마	-11.662
▁좋다는	-11.6622
▁하나를	-11.6623
▁어느정도	-11.6624
▁규제완화	-11.6625
▁구청장은	-11.6626
▁인정받은	-11.6626
▁콘텐트	-11.6627
▁일반인	-11.6627
▁티켓	-11.6629
▁커서	-11.6629
▁무상	-11.6633
▁구조로	-11.6633
▁주차장	-11.6634
▁이대	-11.6634
▁정무위	-11.6637
▁악	-11.6638
▁패권주의	-11.6638
▁제고에	-11.6638
▁살충제	-11.6638
▁석탄	-11.664
▁되물었다	-11.664
▁살아야	-11.6641
▁기획재정위원회	-11.6642
▁적용되는	-11.6643
중대	-11.6643
▁적용한	-11.6644
▁결국은	-11.6646
▁배포한	-11.6647
▁녹취록	-11.6649
여자	-11.665
▁수순	-11.6652
연합회	-11.6652
박정희	-11.6653
▁관심도	-11.6653
년에도	-11.6654
부당하게	-11.6655
케이	-11.6655
i	-11.6656
▁침략	-11.6656
▁병장	-11.6658
▁업계에서	-11.6659
▁개원	-11.666
80	-11.666
▁부적격	-11.666
▁자유한국당은	-11.6661
▁어디로	-11.6663
▁산다	-11.6664
팀에	-11.6665
▁케이블	-11.6665
▁압박이	-11.6668
▁것인지에	-11.6668
▁드론	-11.6669
기관의	-11.667
교육부	-11.667
▁무엇이냐	-11.667
잡	-11.6671
▁자발적	-11.6671
▁여기까지	-11.6671
▁벌여	-11.6672
▁개최할	-11.6672
▁외교관	-11.6673
만여	-11.6675
▁성완종	-11.6675
기기	-11.6676
▁전체회의	-11.6676
▁정치보복	-11.6676
▁미팅	-11.6676
▁상관	-11.668
▁탐지	-11.668
▁박람회	-11.6683
▁시킬	-11.6684
▁180	-11.6686
▁잠정	-11.6689
▁두려워	-11.669
▁동맹국	-11.669
▁내정	-11.6691
▁담당한	-11.6693
▁그녀는	-11.6693
▁의미하는	-11.6693
▁논	-11.6694
노인	-11.6694
▁해당하지	-11.6697
▁거부할	-11.6697
▁끝내고	-11.6699
▁터져	-11.6699
창민	-11.6701
▁진출하는	-11.6702
▁스윙	-11.6702
▁지켜보는	-11.6702
▁믿어	-11.6703
▁어찌	-11.6705
▁방문이	-11.6706
▁읽	-11.6706
시키지	-11.6706
소방서	-11.6707
사로	-11.671
▁현실적	-11.6711
▁주민이	-11.6713
▁자리잡	-11.6713
대한	-11.6716
데이	-11.6716
▁간판	-11.6718
▁예정대로	-11.6718
▁규칙	-11.672
▁없애고	-11.672
▁업체와	-11.672
▁소개하며	-11.6722
▁올라왔다	-11.6724
▁기소됐다	-11.6724
▁요구해	-11.6725
▁인격	-11.6725
▁인지하고	-11.6727
신청	-11.6727
▁나아가는	-11.6728
▁중요성	-11.6729
새정치연합	-11.673
구조조정	-11.673
유승민	-11.6731
▁번째로	-11.6731
▁참석하지	-11.6732
▁발사대	-11.6733
▁즐기고	-11.6733
▁치르는	-11.6733
▁막지	-11.6733
▁기틀	-11.6734
▁선수들도	-11.6734
▁본사에서	-11.6735
▁확대해야	-11.6735
융합	-11.6736
▁김관진	-11.6737
▁법원에서	-11.6739
▁신공항	-11.674
▁외부에	-11.6742
▁관행이	-11.6742
▁내놓는	-11.6743
▁미얀마	-11.6744
정비	-11.6745
▁자가	-11.6746
▁과제는	-11.6746
▁8000	-11.6747
▁훈련이	-11.6747
▁공약으로	-11.6747
▁묻	-11.6747
진영	-11.6747
▁해놓고	-11.6748
▁"5·18	-11.6748
▁풀고	-11.6751
▁안되고	-11.6753
▁중소형주	-11.6753
▁용도	-11.6753
▁매티스	-11.6754
▁걸맞은	-11.6754
▁위장	-11.6754
▁무혐의	-11.6754
▁추경안	-11.6754
드는	-11.6754
▁보호무역주의	-11.6754
▁세월	-11.6755
만명의	-11.6755
▁희망하는	-11.6755
패션	-11.6756
▁노력하자	-11.6756
▁서비스업	-11.6756
인데도	-11.6756
▁맺었다	-11.6757
▁반영하지	-11.6759
▁직원에게	-11.6759
▁단기적	-11.676
자신이	-11.676
▁신작	-11.6762
▁노트	-11.6764
▁방향과	-11.6766
▁평창동계올림픽	-11.6768
▁회사와	-11.6768
노사	-11.677
▁맥락에서	-11.677
▁강경한	-11.6771
▁37	-11.6771
▁해운	-11.6772
▁소임을	-11.6773
▁정립	-11.6773
▁지자체가	-11.6776
▁당사자인	-11.6777
▁자격으로	-11.6777
차원에서	-11.6778
▁의료진	-11.6779
년간의	-11.6779
▁용도로	-11.678
▁관련자들	-11.6782
▁RPG	-11.6782
저출산	-11.6783
▁취지는	-11.6785
▁이사장이	-11.6785
▁일자	-11.6786
▁쌓여	-11.6786
체육	-11.6786
a	-11.6789
▁발전하고	-11.6789
▁취임식에서	-11.6789
처음부터	-11.679
▁지상	-11.6791
▁이기고	-11.6791
▁명단에	-11.6791
▁같은당	-11.6793
감정	-11.6795
▁공공연	-11.6796
▁경로를	-11.6798
▁피해자에게	-11.6798
▁지속하고	-11.6799
▁허용하는	-11.68
▁알면서도	-11.6801
▁물리적	-11.6801
▁시즌이	-11.6802
▁이르면	-11.6804
▁김정훈	-11.6806
박물관	-11.6807
▁결정적	-11.6808
▁간섭	-11.6808
▁선장	-11.681
▁가계대출	-11.6811
힘	-11.6812
하반기에	-11.6812
▁유용	-11.6812
도대체	-11.6815
▁불복	-11.6815
▁여성들	-11.6816
▁관광산업	-11.6818
▁부위원장	-11.6818
▁연준	-11.6819
당원	-11.6819
꾼	-11.682
▁총파업	-11.6822
▁앞당겨	-11.6822
▁충전	-11.6823
▁백씨	-11.6823
정지	-11.6823
▁비례대표제	-11.6824
▁보호할	-11.6824
▁동부증권	-11.6824
석을	-11.6824
현상	-11.6826
▁신사업	-11.6826
▁살아있는	-11.6827
▁내리지	-11.6827
▁민주당을	-11.6828
▁살펴봐야	-11.6829
▁미드필더	-11.6829
▁유저들에게	-11.683
▁조종사	-11.6831
택시	-11.6831
▁SUV	-11.6832
▁자료에	-11.6832
결과를	-11.6833
지길	-11.6834
▁순매수	-11.6835
▁투명하고	-11.6836
세로	-11.6837
▁자산운용	-11.6838
▁파악하기	-11.6839
▁중이던	-11.6841
▁기반의	-11.6843
▁강화된	-11.6843
▁상속	-11.6846
개로	-11.6847
연패	-11.6849
수술	-11.6849
▁피로	-11.6849
▁총선에	-11.685
▁죄송	-11.6851
방안	-11.6852
▁악순환	-11.6852
▁선고한	-11.6852
▁질이	-11.6855
▁임명동의안	-11.6856
▁추징금	-11.6857
▁55	-11.6857
▁서비스의	-11.6858
집권	-11.6858
▁재배	-11.686
▁예비후보	-11.686
▁전화해	-11.6861
지역에	-11.6861
름	-11.6862
▁청사에서	-11.6863
▁개최해	-11.6863
▁둘러싸고	-11.6863
▁제외하면	-11.6864
▁잠깐	-11.6865
취임	-11.6865
내용을	-11.6865
▁제공을	-11.6868
여론조사	-11.6869
나이	-11.687
자들에게	-11.6871
▁책임도	-11.6873
▁처음에는	-11.6873
▁적자를	-11.6874
▁우리나라에	-11.6875
▁진출해	-11.6875
▁독	-11.6876
성공	-11.6877
▁나오면서	-11.6877
▁만들어가는	-11.6878
▁일이라	-11.688
▁금융소비자	-11.688
▁직무유기	-11.6881
선관위	-11.6882
정부도	-11.6882
▁피해자들이	-11.6883
메일	-11.6884
▁일정은	-11.6885
해진다	-11.6886
▁샤	-11.6886
▁불황	-11.6887
▁성향이	-11.6887
▁차차	-11.6887
▁앞장	-11.689
▁선포	-11.6891
▁건강관리에	-11.6892
▁도지사	-11.6893
▁수사의	-11.6893
▁타이어	-11.6894
▁자금조달	-11.6894
▁사람이다	-11.6895
▁고소장	-11.6897
▁치료제	-11.6897
좌	-11.6898
▁장소에서	-11.6898
▁표정을	-11.6898
▁명예교수	-11.6898
▁통일의	-11.6899
▁여파로	-11.6899
▁사소	-11.69
▁손님이	-11.69
▁질환	-11.6901
주말	-11.6901
그런데도	-11.6901
업무를	-11.6901
▁폈다	-11.6902
▁흔드는	-11.6902
▁6·25	-11.6902
▁터뜨렸다	-11.6903
▁서강대	-11.6903
▁끼친	-11.6905
▁넘어선	-11.6905
▁말하면서	-11.6905
▁지향	-11.6906
▁쾌적한	-11.6907
▁삼을	-11.6907
▁산업화	-11.6908
▁바꾸겠다	-11.6908
▁전달해	-11.691
완전한	-11.691
▁실체를	-11.6911
사과	-11.6911
▁구축에	-11.6913
▁되나	-11.6914
▁배웠다	-11.6915
시기를	-11.6916
▁삼성화재	-11.6916
▁소외	-11.6917
▁발표하면서	-11.6918
▁130	-11.6919
국민에게	-11.6919
장과	-11.692
▁박았다	-11.692
▁떠	-11.6921
▁불확실한	-11.6923
▁은행들이	-11.6923
▁방문은	-11.6923
▁스스로가	-11.6926
왔고	-11.6927
▁회복하기	-11.6927
제도의	-11.6927
금리가	-11.6928
밍	-11.6928
▁이기	-11.6928
감이	-11.6929
▁숭고한	-11.6929
▁영구	-11.693
그룹은	-11.693
▁고품질	-11.693
▁조심스럽게	-11.6932
▁핵무장	-11.6933
▁신빙성이	-11.6933
▁수출에	-11.6933
▁달린	-11.6934
▁국조특위	-11.6935
▁실점	-11.6936
▁홈쇼핑	-11.6936
▁해결하지	-11.6938
▁국민으로부터	-11.6939
▁인명피해	-11.6939
▁온실가스	-11.694
▁꾸려	-11.694
결제	-11.6941
▁승무원	-11.6942
헨	-11.6942
▁효율화	-11.6943
▁넘지	-11.6943
계약을	-11.6944
블	-11.6945
위원회가	-11.6947
▁집권여당	-11.6949
서울대	-11.6949
▁외환위기	-11.695
온전히	-11.695
▁함께할	-11.6952
겠습니다	-11.6953
▁함정	-11.6953
▁따라야	-11.6954
배가	-11.6954
▁맡을	-11.6956
▁풀이된다	-11.6956
▁있으면서	-11.6956
▁것이나	-11.6958
겨	-11.6958
▁끌었다	-11.6958
▁보여주겠다	-11.6958
렸다	-11.696
▁향해서	-11.6962
▁퍼	-11.6962
▁48	-11.6963
공정	-11.6963
▁오겠다	-11.6966
▁지켜봐	-11.6966
▁금연	-11.6967
캐피탈	-11.6967
기보다는	-11.6969
▁강조하기	-11.6971
▁소셜	-11.6972
▁접할	-11.6973
▁해달라고	-11.6973
▁골프장	-11.6973
▁아나운서	-11.6974
기업들	-11.6974
▁맡는	-11.6975
▁어르신들	-11.6975
▁마련돼야	-11.6976
▁자제하고	-11.6977
▁250	-11.6978
수석	-11.6978
▁착용	-11.6979
주를	-11.6979
▁지도부에	-11.698
▁심하게	-11.6981
▁역사적인	-11.6982
▁응답	-11.6983
▁올라온	-11.6983
▁기업문화	-11.6983
▁적혀	-11.6983
▁민주주의가	-11.6983
▁당직	-11.6985
▁필요하지	-11.6986
▁국가정보원	-11.6988
▁판단하기	-11.6989
▁다가오는	-11.6989
효과가	-11.699
▁증상	-11.6991
▁여타	-11.6991
▁품격	-11.6991
▁효력	-11.6995
화해	-11.6996
아프리카	-11.6996
▁존재감	-11.6996
커피	-11.6997
협의체	-11.7
▁문화의	-11.7
▁처해	-11.7001
공식	-11.7002
봤다	-11.7003
▁개발자	-11.7003
분열	-11.7004
▁술에	-11.7006
▁자신도	-11.7006
▁임대주택	-11.7007
▁개념이	-11.7008
혈	-11.7008
▁실현하는	-11.7008
▁선사	-11.7008
▁이루어	-11.7009
데도	-11.701
▁날렸다	-11.7011
차를	-11.7011
▁심장	-11.7012
▁운운하는	-11.7012
▁힘들고	-11.7012
▁부장	-11.7012
▁전화로	-11.7012
초기	-11.7013
▁모두를	-11.7016
▁본질은	-11.7016
여만원을	-11.7017
끝까지	-11.7018
▁계속하고	-11.7018
둔	-11.7018
용품	-11.7019
▁플레이어	-11.702
▁회복하는	-11.7021
가격이	-11.7022
새롭게	-11.7023
▁거시경제	-11.7023
GM	-11.7025
인간	-11.7027
▁반성하는	-11.7027
법무부	-11.7028
▁골고	-11.7029
MB	-11.703
플러스	-11.7032
국방부	-11.7033
▁붙어	-11.7034
▁지주사	-11.7035
▁부상으로	-11.7035
▁성토했다	-11.7037
▁무겁게	-11.7039
▁늘리기	-11.704
▁사랑받는	-11.7043
주기를	-11.7043
▁확보해야	-11.7043
▁가야한다	-11.7044
▁실명	-11.7044
▁간호사	-11.7045
▁자정	-11.7045
▁철학	-11.7046
뒤	-11.7047
▁수준까지	-11.7048
▁자존심을	-11.7049
▁했으니	-11.705
▁생각하지만	-11.705
▁112	-11.705
▁우려해	-11.7051
▁정례	-11.7052
▁탄핵에	-11.7053
▁국민안전처	-11.7054
▁투어	-11.7055
▁보완할	-11.7055
▁기대치	-11.7055
▁누	-11.7057
▁찾	-11.7057
▁혀	-11.7057
▁우호적인	-11.7061
향후에	-11.7062
등록	-11.7062
▁시각에서	-11.7063
▁법제사법위원회	-11.7064
▁주관	-11.7064
▁절차적	-11.7064
▁당정	-11.7067
▁민주당에	-11.7068
▁말처럼	-11.7068
▁조항이	-11.7068
다시는	-11.7073
▁결산	-11.7074
▁워크숍	-11.7074
▁중앙일보	-11.7074
▁젊은이들이	-11.7075
▁계	-11.7075
▁행사하는	-11.7076
빛	-11.7077
▁대처해	-11.7077
▁신발	-11.7077
안타	-11.7078
▁낮고	-11.7079
▁극복하는	-11.7079
▁착수	-11.708
▁회복될	-11.7081
▁점심	-11.7081
중간	-11.7083
▁연계한	-11.7084
만달러	-11.7084
▁본회의를	-11.7086
▁침묵	-11.7086
▁VIP	-11.7087
▁중이고	-11.7087
▁문구	-11.7088
▁2030	-11.7089
▁세심	-11.7089
물류	-11.709
▁확대되는	-11.709
▁잃게	-11.709
▁거치	-11.709
▁자아냈다	-11.709
소통	-11.7091
▁순수한	-11.7093
▁행복하다	-11.7094
▁나쁘다	-11.7094
▁혁신적	-11.7094
▁도발이	-11.7094
▁누구에게	-11.7095
▁파급효과	-11.7096
▁취임한	-11.7098
▁공안	-11.7101
▁차관보는	-11.7101
▁전환할	-11.7101
틀	-11.7101
부지	-11.7102
▁X	-11.7102
▁읽는	-11.7102
▁도전에	-11.7103
▁사정에	-11.7104
▁입증할	-11.7104
▁구성에	-11.7104
근로자	-11.7106
자격	-11.7106
▁확률	-11.7107
▁행복하게	-11.7107
▁벌금형	-11.7107
▁테러방지법	-11.7108
▁유도할	-11.7109
▁정성	-11.7109
▁자발적인	-11.711
▁환불	-11.711
▁구제역	-11.711
▁넣을	-11.7112
▁장착	-11.7112
▁육	-11.7113
▁일회성	-11.7116
▁거론되는	-11.7117
▁절약	-11.7117
▁시스템에	-11.7117
▁끊이지	-11.7118
▁달러에	-11.7119
▁김모	-11.7119
비상	-11.712
사업은	-11.712
▁벌어지는	-11.7121
▁의료기관	-11.7121
▁진술에	-11.7121
▁단가	-11.7123
▁현안이	-11.7124
▁발전시킬	-11.7124
▁리모델링	-11.7124
▁쓴다	-11.7125
▁학생부	-11.7125
▁부인한	-11.7126
▁보여주지	-11.7127
▁버핏	-11.7128
▁외식	-11.7129
▁푸틴	-11.7131
▁총기	-11.7139
▁동양	-11.714
▁신고리	-11.7141
▁설명이	-11.7142
맨유	-11.7143
▁인물을	-11.7144
▁나이에	-11.7144
▁동행	-11.7145
▁반겼다	-11.7145
대규모	-11.7149
▁세트	-11.7149
▁혐오	-11.715
▁이혜훈	-11.7151
아빠	-11.7151
▁그와	-11.7151
했나	-11.7153
▁유산	-11.7154
▁커지면서	-11.7154
▁자리는	-11.7155
▁이정미	-11.7155
▁어머니가	-11.7155
▁전두환	-11.7157
▁화려한	-11.7157
▁자산이	-11.7159
▁보람	-11.7159
▁학계	-11.716
▁인근에	-11.716
움	-11.716
▁지원한	-11.7161
▁대응방안	-11.7161
▁가담	-11.7161
▁구조적인	-11.7162
▁줄여야	-11.7162
▁포괄적	-11.7163
▁기록물	-11.7165
▁높이겠다	-11.7166
▁기관에	-11.7167
무사히	-11.7168
중견기업	-11.7169
뱅크	-11.717
▁늘어나면서	-11.7171
엠	-11.7171
▁설명해	-11.7171
▁지니고	-11.7171
▁양사	-11.7172
▁가사	-11.7173
▁양립	-11.7174
▁말았다	-11.7174
기준을	-11.7174
▁스님	-11.7174
▁놓지	-11.7175
▁가정의	-11.7175
▁권성동	-11.7177
▁이주열	-11.7177
▁훼손한	-11.7177
받는	-11.7178
▁능력에	-11.7179
▁재가동	-11.718
▁제기할	-11.7184
▁예상돼	-11.7185
▁공제	-11.7185
국정농단	-11.7187
드라마	-11.7187
▁영업점	-11.7188
▁옐런	-11.7188
▁대기업에	-11.719
▁시내	-11.7192
버린	-11.7193
▁무너진	-11.7193
▁농심	-11.7194
▁찬스	-11.7194
▁축산	-11.7195
▁납치	-11.7196
▁시키는	-11.7196
최고의	-11.7197
▁제시해야	-11.7198
▁감독대행	-11.7199
▁신축	-11.72
45	-11.7201
▁승격	-11.7203
▁틈	-11.7205
증권사	-11.7206
보증	-11.7208
▁국회로	-11.7208
▁방문할	-11.7209
저를	-11.7209
▁설득력	-11.721
▁항만	-11.721
▁제안이	-11.721
▁형량	-11.721
▁질병관리본부	-11.721
▁남겨	-11.7211
억달러	-11.7212
부채	-11.7214
▁고민할	-11.7215
▁중앙정부	-11.7217
▁불편이	-11.7217
었으면	-11.7217
겠는가	-11.7218
▁의구심이	-11.722
▁태도는	-11.722
▁거는	-11.7221
인상	-11.7221
로만	-11.7221
▁페이스	-11.7222
▁좋겠다고	-11.7223
▁덜어	-11.7224
▁분도	-11.7224
▁부작용	-11.7226
▁기꺼이	-11.7226
▁재벌개혁	-11.7227
▁공정성과	-11.7227
▁혁신에	-11.7228
▁대면	-11.7229
▁자택	-11.7229
▁개최되는	-11.723
▁쉬는	-11.723
▁기억한다	-11.7231
▁고백	-11.7232
들어	-11.7232
▁골키퍼	-11.7234
▁가족들과	-11.7235
▁불가피하게	-11.7235
▁취지와	-11.7236
▁교장	-11.724
단순한	-11.724
두산	-11.724
▁매수세	-11.7241
읍	-11.7243
▁제일모직	-11.7244
▁매월	-11.7245
▁검증이	-11.7246
▁일반적	-11.7246
제는	-11.7246
114	-11.7248
의원은	-11.7249
▁슬	-11.7249
▁담당하고	-11.725
▁편의성	-11.7251
▁싸우는	-11.7254
▁팀은	-11.7256
▁진솔	-11.7259
▁실내	-11.726
▁목표주가	-11.7261
▁불씨	-11.7261
▁대검찰청	-11.7262
학교에서	-11.7262
▁한화투자증권	-11.7263
▁대해서만	-11.7265
▁순환	-11.7266
시길	-11.7269
▁정규	-11.7269
▁쿠	-11.727
관리를	-11.727
안정	-11.7272
▁평범한	-11.7273
체험	-11.7274
서라도	-11.7274
▁불행한	-11.7276
▁공급하는	-11.7276
▁지수가	-11.7278
▁안양	-11.7278
▁즉각적인	-11.7278
징	-11.7278
▁복수	-11.7279
핵심	-11.7279
▁친분	-11.728
▁괜찮은	-11.7281
▁낱낱	-11.7281
▁풀이했다	-11.7284
으면서	-11.7285
▁페스티벌	-11.7286
원내대표	-11.7288
▁MMORPG	-11.7288
▁친인척	-11.7288
▁양쪽	-11.7289
▁테이블	-11.7289
▁마무리했다	-11.7291
▁지문	-11.7291
▁지났다	-11.7292
므로	-11.7292
▁돌아오는	-11.7292
관이	-11.7293
역시	-11.7294
▁캠프에	-11.7294
공정위	-11.7295
▁원한다면	-11.7295
▁금융개혁	-11.7295
▁음모	-11.7297
▁전략에	-11.7297
철저한	-11.7297
▁유력한	-11.7299
▁이모	-11.73
▁말이다	-11.73
▁세우기	-11.73
▁대통령께	-11.7301
▁압도적인	-11.7302
▁진행해야	-11.7303
▁적정한	-11.7304
▁상황이지만	-11.7305
▁울	-11.7306
호의	-11.7308
▁지어	-11.7309
했어요	-11.731
다니	-11.731
▁위원장에게	-11.7311
▁가르치는	-11.7311
▁사업비	-11.7312
추후	-11.7312
▁넣는	-11.7312
▁번복	-11.7313
플랫폼	-11.7314
▁아니더라도	-11.7316
▁건가	-11.7316
▁특활비	-11.7317
나가겠다	-11.7318
랜드	-11.732
▁원인으로	-11.7321
▁기량을	-11.7322
▁프레임	-11.7324
▁자료는	-11.7324
사기	-11.7325
▁간담회에	-11.7326
▁재정건전성	-11.7327
▁모독	-11.7328
▁자사주	-11.7328
▁고수	-11.733
교실	-11.733
▁넣었다	-11.733
▁코칭스태프	-11.733
▁없었다면	-11.7332
▁일시적인	-11.7333
▁전문가를	-11.7333
사람들이	-11.7333
▁도발과	-11.7333
▁포기한	-11.7334
▁남기	-11.7334
▁공급할	-11.7335
▁방안으로	-11.7335
준호	-11.7336
▁당위성	-11.7339
▁의대	-11.7342
▁주셔서	-11.7342
▁수년간	-11.7343
▁행태는	-11.7343
▁외상	-11.7344
▁이낙연	-11.7344
▁제작사	-11.7346
▁7000	-11.7346
하에	-11.7346
▁국어	-11.7347
▁밀려	-11.7347
해주면	-11.7348
▁소식	-11.7348
▁출시한	-11.735
▁홍보수석	-11.735
▁인사로	-11.735
턴	-11.735
학기	-11.7351
그럼	-11.7352
▁계류	-11.7352
▁조정하는	-11.7353
▁시기와	-11.7353
▁되려면	-11.7354
▁잉글랜드	-11.7355
▁과징금	-11.7355
▁분야로	-11.7361
▁올라가는	-11.7362
▁보류	-11.7362
사법	-11.7364
▁유발	-11.7365
▁국제유가	-11.7365
▁주도할	-11.7366
▁예전	-11.7366
▁연루된	-11.7366
▁아름다움	-11.7367
▁군민	-11.7368
▁대남	-11.7368
▁전인	-11.7368
▁모은다	-11.737
▁청년들에게	-11.737
▁공매도	-11.7371
▁디렉터는	-11.7372
▁북부	-11.7373
▁가는데	-11.7373
▁고르	-11.7374
정기적으로	-11.7374
▁이해도	-11.7374
▁탄핵안	-11.7374
▁주시하고	-11.7375
▁국민들로부터	-11.7378
▁국토	-11.738
▁건강하고	-11.7381
9000	-11.7381
▁넘어서는	-11.7383
▁이른다	-11.7383
▁O	-11.7383
▁임시국회에서	-11.7384
▁프리	-11.7384
▁"2000	-11.7386
▁중요성이	-11.7387
▁극단적	-11.7387
단과	-11.7388
▁때에	-11.7388
▁성과연봉제	-11.7388
▁사무국	-11.7388
▁질타	-11.7388
▁마땅한	-11.7389
▁이완구	-11.7389
▁자위적	-11.739
▁갖추는	-11.739
었을	-11.739
▁사회로	-11.7391
▁기해	-11.7392
▁이루어질	-11.7393
▁거두고	-11.7394
▁난민	-11.7396
모두가	-11.7396
▁다가갈	-11.7397
▁폭락	-11.7397
▁상승했다	-11.7397
나눔	-11.7398
▁인내	-11.74
자체	-11.74
▁모르게	-11.7402
▁민변	-11.7402
▁감염병	-11.7402
▁생산량	-11.7403
▁인근에서	-11.7404
▁불행	-11.7406
▁본지	-11.7406
▁하이	-11.7407
▁통신비	-11.7408
사실이	-11.7409
▁시험발사	-11.741
▁실무자	-11.7411
량을	-11.7414
▁의정활동	-11.7416
▁것이므로	-11.7418
기계	-11.7418
▁명지대	-11.742
▁기류	-11.7421
혐의	-11.7422
▁활용하면	-11.7424
▁보내주신	-11.7425
▁당권	-11.7426
▁감금	-11.7428
새해	-11.7428
▁관리해	-11.7429
으로서는	-11.7429
▁그래야	-11.743
▁돌리는	-11.743
효과	-11.7432
▁외면	-11.7433
▁신종	-11.7433
▁파악하지	-11.7434
▁작용했다	-11.7435
역량을	-11.7436
화장품	-11.7437
▁시사	-11.7437
▁7%	-11.7438
▁열어놓고	-11.7438
▁한동안	-11.7438
되었다	-11.7439
▁좋아서	-11.7439
▁SOC	-11.744
▁최소화하고	-11.744
▁기관과	-11.7441
하든	-11.7441
▁선두	-11.7441
▁못한다는	-11.7442
▁기여하겠다	-11.7443
궁	-11.7443
▁인정해	-11.7443
국민적	-11.7445
선이	-11.7446
쓰	-11.7447
▁이곳에	-11.7447
▁PM	-11.7449
▁참석자	-11.7452
▁핵미사일	-11.7453
▁저축	-11.7454
▁발병	-11.7457
▁김형	-11.7458
▁했어야	-11.746
▁FOMC	-11.746
▁없애는	-11.7461
▁공격했다	-11.7461
▁변제	-11.7461
▁품위	-11.7462
도서관	-11.7463
▁값이	-11.7463
▁방문했다	-11.7466
준다	-11.7468
▁표현하는	-11.7469
▁간접	-11.7471
▁소액	-11.7472
▁발의한	-11.7474
샵	-11.7476
공화국	-11.7476
▁동포	-11.7477
▁통치	-11.7478
▁핵개발	-11.7478
▁스타일을	-11.748
▁택배	-11.748
▁소외계층	-11.7481
▁코스	-11.7483
▁서민경제	-11.7484
▁감정이	-11.7484
관계를	-11.7484
▁캠퍼스	-11.7485
▁생존권	-11.7485
▁집안	-11.7488
▁어긋난다	-11.7488
▁뒤집어	-11.7489
MBC	-11.749
한화	-11.749
▁수입이	-11.7491
▁지원해야	-11.7491
▁옆에서	-11.7492
▁추억	-11.7492
▁총액	-11.7492
임이	-11.7494
강도	-11.7495
▁나오게	-11.7497
▁추락	-11.7498
▁매력	-11.7499
규모가	-11.7499
부서	-11.75
▁교과	-11.7503
전북	-11.7503
▁톱	-11.7504
▁악화될	-11.7504
▁조정할	-11.7504
▁어려워질	-11.7507
▁갖추지	-11.7508
▁성의	-11.7508
중소	-11.7509
▁간절한	-11.751
▁직무대행	-11.751
▁똑같다	-11.751
▁세입	-11.7511
▁견	-11.7512
▁전문가의	-11.7513
▁이루겠다	-11.7514
▁중앙당	-11.7514
▁특검의	-11.7515
▁국외	-11.7516
▁들어가면	-11.7518
▁경선에서	-11.7519
▁포함됐다	-11.7519
▁일병	-11.752
홈쇼핑	-11.7521
▁사물인터넷	-11.7521
주셨으면	-11.7522
▁있더라	-11.7522
▁기미	-11.7522
▁법제화	-11.7522
▁설득해	-11.7523
▁행사로	-11.7523
▁내에서도	-11.7523
▁경기침체	-11.7525
▁성남시	-11.7526
▁인하를	-11.7528
▁당하고	-11.7529
▁승리에	-11.7529
▁불안해	-11.7529
▁나오	-11.753
▁교감	-11.7531
▁보이면서	-11.7531
▁전개해	-11.7532
카페	-11.7534
민주당의	-11.7534
▁의석	-11.7536
▁김진표	-11.7538
전당대회	-11.7538
급여	-11.7538
▁시스템으로	-11.7539
▁완화를	-11.7539
▁합의된	-11.7539
▁봐야한다	-11.7539
▁관장은	-11.754
논의	-11.7542
▁상사	-11.7543
▁이슈로	-11.7543
▁재평가	-11.7544
▁결정하게	-11.7546
▁경총	-11.7546
업체들	-11.7548
칭	-11.7549
▁맞이해	-11.7549
▁부처와	-11.755
그렇기	-11.7551
▁만나기	-11.7553
▁연령	-11.7553
▁세탁기	-11.7553
▁들어야	-11.7554
▁인사와	-11.7555
▁그들은	-11.7558
▁일본을	-11.7559
▁부족하고	-11.7559
▁깊다	-11.7561
▁존립	-11.7561
▁고사	-11.7562
▁구단과	-11.7562
▁설명했습니다	-11.7563
그만큼	-11.7563
총괄	-11.7565
▁시민과	-11.7565
▁지켜보겠다	-11.7567
▁들어선	-11.7567
벨	-11.7568
▁메모리	-11.7569
▁대안으로	-11.7569
▁기대되는	-11.7569
▁대단하다	-11.757
▁현재로서는	-11.757
▁국가로	-11.7572
아들이	-11.7574
▁지지자들	-11.7575
따	-11.7575
▁관객	-11.7577
▁확보와	-11.7577
했냐	-11.7579
기간을	-11.7581
▁종업원	-11.7581
▁시행하고	-11.7581
▁확정했다	-11.7584
선박	-11.7584
▁기준은	-11.7585
비트코인	-11.7585
세계적인	-11.7586
▁프로모션	-11.7587
맛	-11.7588
▁죄가	-11.7589
▁슈	-11.759
▁앞장설	-11.759
▁줘서	-11.759
▁달렸다	-11.7591
이었다면	-11.7592
▁달려있다	-11.7592
똑바로	-11.7592
▁있으니까	-11.7592
▁싸	-11.7593
지대	-11.7593
▁박병호	-11.7595
▁응	-11.7596
▁시뮬레이션	-11.7598
▁증가해	-11.7599
태평양	-11.76
▁LNG	-11.7601
▁독선	-11.7603
▁국민의당을	-11.7603
▁간첩	-11.7603
▁지역주의	-11.7605
▁거라는	-11.7606
▁금지하는	-11.7606
▁측면을	-11.7607
▁혼선	-11.7607
성완종	-11.7608
▁BMW	-11.7609
라든지	-11.7609
▁산업은	-11.7611
▁군수	-11.7612
▁조리	-11.7613
▁등재	-11.7614
▁소방관	-11.7614
▁제조업체	-11.7615
개정	-11.7617
▁서울시는	-11.7617
▁특단	-11.7617
포항	-11.7618
▁바랐다	-11.7618
▁IS	-11.7619
▁통과될	-11.762
▁문제라고	-11.762
▁재무장관	-11.762
이런저런	-11.7621
▁사회와	-11.7623
▁죽	-11.7624
▁헤	-11.7624
▁달성했다	-11.7625
▁청년실업	-11.7625
▁확정되지	-11.7626
▁만나면	-11.7626
▁강요하는	-11.7627
▁광주시	-11.7628
▁정말로	-11.7629
▁중독	-11.7631
▁졸업생	-11.7631
현대차	-11.7631
▁이한구	-11.7632
▁보호에	-11.7634
▁연구가	-11.7635
▁구역	-11.7637
▁진단을	-11.7638
▁머물러	-11.7639
▁기본적	-11.7639
방법	-11.7641
▁취하는	-11.7641
▁이용자가	-11.7642
▁가면서	-11.7643
▁제시하지	-11.7644
▁증여세	-11.7646
▁핵문제	-11.7646
고객이	-11.7646
▁있겠는가	-11.7647
▁지원자	-11.7649
▁적합하다	-11.7649
하나은행	-11.765
▁각계	-11.7651
▁김시진	-11.7651
▁하락으로	-11.7651
상승	-11.7652
▁5·6	-11.7653
센터에서	-11.7654
▁김부겸	-11.7655
▁사퇴해야	-11.7656
▁정신에	-11.7657
▁도전할	-11.7658
▁답답한	-11.7658
▁비위	-11.7659
▁사업장	-11.7659
▁만나게	-11.766
▁빌미로	-11.766
▁상품권	-11.7662
집에	-11.7662
▁공격적으로	-11.7663
▁범죄로	-11.7664
▁농단	-11.7665
계열사	-11.7665
충분히	-11.7666
▁목격자	-11.7666
▁영향에	-11.7667
▁보충	-11.7667
▁조직적	-11.7668
▁업황	-11.7669
▁검정	-11.7671
▁장수	-11.7672
▁디자이너	-11.7673
▁들어오면	-11.7673
▁조사는	-11.7674
▁명분을	-11.7674
▁조선반도	-11.7674
스의	-11.7675
▁목표에	-11.7676
▁개장	-11.7676
▁않았냐	-11.7676
▁전진	-11.7676
어도	-11.7677
▁면죄부	-11.7678
▁금융거래	-11.7679
▁되게	-11.7679
▁누구인지	-11.768
▁하나만	-11.768
▁약정	-11.7681
▁안전이	-11.7682
▁위생	-11.7684
▁세금이	-11.7686
코드	-11.7688
▁직면해	-11.7689
▁결정하고	-11.769
▁설비투자	-11.7691
▁안개	-11.7692
▁이해하지	-11.7692
▁자극	-11.7693
▁어린이들	-11.7693
몽	-11.7694
▁사례로	-11.7695
저희가	-11.7695
▁논의하겠다	-11.7698
▁순이익	-11.7698
▁특정인	-11.7699
▁업	-11.7699
▁인정받고	-11.7699
공업	-11.77
학생들의	-11.7701
청와대와	-11.7703
▁자신만의	-11.7703
하기를	-11.7703
▁괌	-11.7703
▁연정	-11.7704
▁자랑스럽다	-11.7705
▁배워	-11.7705
▁혁신성장	-11.7706
▁이전과	-11.7707
▁원만한	-11.7707
▁처리해	-11.7708
▁혐의는	-11.7708
지급	-11.7709
▁빵	-11.7711
▁작용하고	-11.7711
▁일어났다	-11.7711
▁자체의	-11.7711
등의	-11.7712
▁전략공천	-11.7712
구조를	-11.7714
▁당내에서	-11.7715
▁다문화	-11.7715
콜	-11.7715
참여정부	-11.7715
김정은이	-11.7716
▁해낼	-11.7716
협의	-11.7717
▁발표는	-11.7718
100	-11.7718
보면	-11.7719
▁기하겠다	-11.7721
▁맞춰서	-11.7722
▁베테랑	-11.7722
람	-11.7725
▁동력이	-11.7725
▁연석회의에서	-11.7727
▁잡스	-11.7727
▁포격	-11.7727
홀	-11.7728
▁민생경제	-11.7728
▁유도하고	-11.7729
실무	-11.773
▁수석대변인	-11.773
▁입학처장	-11.773
▁공인	-11.7731
▁성장했다	-11.7733
▁지난번	-11.7733
▁주도로	-11.7735
▁대륙	-11.7735
▁중소형	-11.7738
▁상식적으로	-11.7739
▁인식과	-11.774
▁설명한다	-11.7741
▁모을	-11.7742
▁사무실에서	-11.7742
▁중견	-11.7742
▁생기	-11.7743
▁휴일	-11.7743
▁하실	-11.7744
▁맞춤	-11.7746
▁됐는지	-11.7746
▁취하겠다	-11.7747
▁객실	-11.7749
▁취재진	-11.7749
▁등장하는	-11.7749
▁덕	-11.7751
▁연말정산	-11.7751
▁관측	-11.7752
▁약속이	-11.7752
▁현상은	-11.7752
▁알리지	-11.7754
승인	-11.7754
▁서울대병원	-11.7755
▁대화할	-11.7759
▁JP	-11.7759
▁김재원	-11.776
▁형성된	-11.776
▁적립	-11.7761
▁우리사회	-11.7761
▁공판	-11.7762
▁민생과	-11.7762
▁행진곡	-11.7762
▁송구스럽게	-11.7766
이어야	-11.7767
우승	-11.7768
▁창출하고	-11.7768
▁연평균	-11.7768
▁강등	-11.777
▁의심할	-11.777
로봇	-11.7771
사태	-11.7772
연말	-11.7773
레이	-11.7773
▁연수	-11.7774
▁비대위원	-11.7775
파업	-11.7777
▁분양가	-11.7777
▁참작해	-11.7777
▁주변국	-11.7778
하이	-11.7781
▁자신은	-11.7782
아세안	-11.7782
캠퍼스	-11.7782
오바마	-11.7782
▁정치와	-11.7785
▁부산에서	-11.7786
중단	-11.7787
▁경남기업	-11.7789
▁정해지지	-11.7792
▁사라지고	-11.7793
▁등록을	-11.7793
▁최소화할	-11.7793
▁여러분께서	-11.7794
▁시설이	-11.7794
▁구체화	-11.7795
▁여수	-11.7795
▁컨디션을	-11.7798
▁타인	-11.7798
▁경제민주화를	-11.7798
▁청렴	-11.7802
▁회유	-11.7802
자마자	-11.7803
▁유소년	-11.7804
▁활동은	-11.7807
▁현대카드	-11.7807
▁바둑	-11.7808
대금	-11.7808
▁상대가	-11.7809
▁유라시아	-11.7809
사항	-11.781
기업에	-11.7811
▁시장점유율	-11.7811
여러분	-11.7811
▁완수	-11.7811
▁접근하는	-11.7812
▁분통	-11.7813
음에도	-11.7816
▁부문에	-11.7817
▁김씨에게	-11.7817
▁고쳐	-11.7818
▁많아졌다	-11.7822
▁특수성	-11.7823
▁띄	-11.7824
주지	-11.7824
▁미래는	-11.7824
▁추운	-11.7824
▁한번도	-11.7825
▁꽉	-11.7825
▁서서히	-11.7825
▁조각	-11.7825
▁폭발적	-11.7826
▁안됐다	-11.7826
억원대	-11.7827
▁갤럭시노트	-11.7828
▁기술개발	-11.7828
기지	-11.783
▁날치기	-11.783
회복	-11.7833
▁KCC	-11.7833
▁46	-11.7833
위원장이	-11.7833
▁기증	-11.7834
▁징수	-11.7835
하기보다는	-11.7839
▁기여했다	-11.784
▁나서기	-11.784
▁개정이	-11.7841
▁평화적으로	-11.7842
▁사직	-11.7844
행복	-11.7844
▁침투	-11.7845
여러가지	-11.7845
▁언론인	-11.7846
▁자본주의	-11.7847
▁부인하는	-11.7847
▁보험료를	-11.7848
▁동참할	-11.7848
비율	-11.7849
▁방법도	-11.7851
▁체험할	-11.7852
▁유익한	-11.7853
▁말부터	-11.7854
▁솔직하게	-11.7854
낙	-11.7855
▁반영되지	-11.7855
▁확산에	-11.7855
▁것보다는	-11.7856
▁조심	-11.7857
▁야구장	-11.7858
▁뛰어나	-11.7861
번호	-11.7861
▁원만하게	-11.7861
▁도로공사	-11.7861
▁최첨단	-11.7862
▁이재오	-11.7862
▁게시물	-11.7862
▁통행	-11.7862
▁성과급	-11.7863
▁전통을	-11.7866
답	-11.7866
▁발돋움	-11.7867
당과	-11.7868
국회법	-11.7869
▁절차와	-11.7869
▁주유소	-11.787
말을	-11.7872
▁한반도와	-11.7872
▁재능을	-11.7873
투쟁	-11.7874
▁하위	-11.7876
▁범행은	-11.7876
▁모바일게임	-11.7877
▁미치고	-11.7877
근무	-11.7878
▁받아들이는	-11.7879
▁저렴하게	-11.7879
▁전작권	-11.7879
▁유럽에서	-11.788
▁캠프에서	-11.7881
본인	-11.7882
▁수사기관	-11.7882
▁이뤄야	-11.7884
션	-11.7884
▁비서관이	-11.7885
▁지금부터	-11.7885
▁법안에	-11.7885
▁시가	-11.7885
▁미니	-11.7886
▁노트북	-11.7887
▁다가가	-11.7887
정의당	-11.7888
▁그동안의	-11.7889
불안	-11.7889
▁기념식	-11.789
강한	-11.789
▁자부심	-11.7891
▁소재를	-11.7892
▁사랑에	-11.7892
▁종류의	-11.7893
▁39	-11.7894
▁졸속	-11.7895
▁뒷	-11.7895
▁이용자들에게	-11.7896
▁봉	-11.7896
▁컬러	-11.7898
▁좋아지고	-11.79
▁증가하면서	-11.79
▁시간도	-11.7901
▁벤	-11.7902
▁헬스케어	-11.7903
이처럼	-11.7904
▁일으키는	-11.7905
▁놨다	-11.7905
경비	-11.7905
▁공감하는	-11.7906
▁주실	-11.7907
리아	-11.7908
▁다녀온	-11.7909
▁최씨와	-11.791
▁건축물	-11.791
위원회에서	-11.791
▁유의하기	-11.791
▁출마한	-11.7912
▁사용이	-11.7912
▁일으켰다	-11.7913
▁발생했을	-11.7915
▁입법을	-11.7915
▁가하는	-11.7916
상에	-11.7917
▁의존	-11.7919
▁방향은	-11.792
▁시티	-11.7921
▁정책위	-11.7922
▁참패	-11.7922
교육감	-11.7923
발언	-11.7924
▁조종	-11.7924
▁가시	-11.7924
▁당선자	-11.7924
▁전면적으로	-11.7924
▁의료비	-11.7925
▁국익에	-11.7926
▁주말에	-11.7927
백화점	-11.7927
▁서울에	-11.7927
▁이럴	-11.7928
▁저자	-11.7929
▁불안정	-11.7931
▁역할도	-11.7932
▁편의성을	-11.7932
▁법으로	-11.7932
렸던	-11.7933
이것	-11.7934
▁중요하지	-11.7934
하기는	-11.7936
일까	-11.7936
▁필요도	-11.7937
▁정부세종청사	-11.7937
▁전원이	-11.7937
▁체포영장	-11.7938
▁비서실	-11.7938
▁상처가	-11.7938
▁보러	-11.7941
▁소주	-11.7941
▁조카	-11.7941
▁직면	-11.7941
▁첫째	-11.7942
무기	-11.7942
▁충원	-11.7943
▁커진다	-11.7943
▁덧붙여	-11.7944
▁난이도	-11.7944
▁크리스	-11.7945
▁삶과	-11.7945
▁거치면서	-11.7945
▁음식점	-11.7945
▁임하는	-11.7945
▁양식	-11.7946
▁할까	-11.7946
-2	-11.7946
▁사익	-11.7949
▁일조	-11.795
▁협상의	-11.795
▁드러나고	-11.7951
▁표현할	-11.7953
▁가지를	-11.7955
상반기	-11.7955
시대를	-11.7956
포스코	-11.7957
단속	-11.7957
▁이용호	-11.7958
▁이례적인	-11.7958
▁예산에	-11.7959
▁옮기는	-11.796
어린이집	-11.796
▁김진	-11.796
년전	-11.7962
▁론칭	-11.7964
▁연구에	-11.7966
▁저질러	-11.7967
▁비자	-11.7967
▁이용자들이	-11.7967
▁차이는	-11.7968
▁의견은	-11.7968
▁심화되고	-11.7969
▁한반도에서	-11.7969
여당이	-11.797
▁똑똑	-11.7971
▁진위	-11.7971
통계	-11.7973
망을	-11.7973
구체적으로	-11.7974
▁사우디	-11.7974
▁맞는지	-11.7974
▁다지는	-11.7976
▁되고자	-11.7976
▁거죠	-11.7976
▁나경원	-11.7977
▁활용될	-11.7978
서야	-11.798
완만한	-11.798
▁신약	-11.798
▁중장기적	-11.7981
▁첫날	-11.7981
년여	-11.7982
▁임금피크제	-11.7982
▁선원	-11.7982
▁국면에	-11.7983
▁이용하고	-11.7983
▁최고치	-11.7986
소리	-11.7986
프로젝트	-11.7988
▁유관기관	-11.7989
▁질문에도	-11.7991
왔는데	-11.7992
▁오르	-11.7992
▁기후	-11.7993
▁호평	-11.7994
▁못지않게	-11.7996
시간에	-11.7997
▁위험하다	-11.7997
▁신화	-11.7998
수당	-11.7998
었	-11.7998
▁답답하다	-11.7998
차관	-11.7999
호를	-11.7999
▁전대	-11.7999
▁수산물	-11.8
▁차근차근	-11.8
▁총선과	-11.8
▁힐링	-11.8001
▁선수에게	-11.8001
▁일침	-11.8001
▁강구해	-11.8001
▁적절하게	-11.8001
▁배상하라	-11.8002
▁산업과	-11.8004
g	-11.8004
▁광복절	-11.8005
▁아웃도어	-11.8007
▁전략과	-11.8007
혹시	-11.8009
▁활동으로	-11.8011
반복적으로	-11.8012
▁열정이	-11.8014
▁모의	-11.8015
▁정당화	-11.8015
▁모듈	-11.8016
정치는	-11.8017
▁해방	-11.8018
비즈니스	-11.8018
다행히	-11.8018
▁언급하는	-11.8019
▁만족을	-11.8019
▁출간	-11.8021
▁표현은	-11.8022
▁생태	-11.8022
▁장애가	-11.8023
▁골라	-11.8023
젠	-11.8024
▁협력하는	-11.8025
▁환경과	-11.8025
▁우윤근	-11.8026
▁태어난	-11.8026
▁문구를	-11.8026
▁레드	-11.8027
▁블랙	-11.8028
▁이규철	-11.8028
▁사무	-11.8029
로선	-11.8029
기만	-11.803
마음	-11.8032
▁현안브리핑에서	-11.8033
▁공약이	-11.8033
딸	-11.8034
하겠느냐	-11.8034
▁실리	-11.8035
▁신흥시장	-11.8035
▁금융투자업계	-11.8035
▁사망자	-11.8035
▁루머	-11.8036
▁만화	-11.8036
▁불미스러운	-11.8037
▁한우	-11.804
▁유연한	-11.804
더욱	-11.8041
▁법규	-11.8041
▁경제수석	-11.8041
▁다닐	-11.8041
▁이승엽은	-11.8042
빌	-11.8042
이라서	-11.8043
▁구자철	-11.8045
▁박영수	-11.8048
▁추세에	-11.8048
SNS	-11.8048
▁과학적	-11.8048
▁위자료	-11.805
▁감세	-11.8051
▁SW	-11.8051
▁처신	-11.8054
▁목소리도	-11.8054
▁전국의	-11.8055
▁보이기	-11.8057
▁없었는데	-11.8057
▁않은데	-11.8059
▁대표인	-11.806
▁'1	-11.806
▁대비하고	-11.8061
▁토론이	-11.8062
교육청	-11.8062
시민들의	-11.8065
영장	-11.8069
신용	-11.807
▁국제기구	-11.807
▁관여하지	-11.8074
▁죽은	-11.8075
▁믿기	-11.8081
▁누리	-11.8082
외환은행	-11.8082
▁마무리하고	-11.8083
▁창구	-11.8084
▁참석할	-11.8084
▁출시된	-11.8084
▁뒷받침할	-11.8084
▁STX	-11.8085
▁노리고	-11.8086
▁반복되는	-11.8087
▁레알	-11.8088
단일화	-11.8088
▁시절부터	-11.8089
태영	-11.809
▁정치공세	-11.8091
▁해이	-11.8092
▁자백	-11.8093
습	-11.8093
되던	-11.8093
적이	-11.8094
▁집행부	-11.8095
▁유상증자	-11.8095
▁하락했다	-11.8095
이기에	-11.8097
▁엔저	-11.8101
▁분위기에	-11.8102
▁가져다	-11.8103
▁참석자는	-11.8104
▁조씨	-11.8104
정상	-11.8105
▁가시적인	-11.8107
▁원칙은	-11.8107
▁이윤	-11.8107
보도	-11.8107
▁실효성이	-11.8108
▁미처	-11.8108
▁핵전쟁	-11.8108
▁변호인단	-11.8108
▁맘	-11.8108
▁지적한다	-11.811
▁국민들께서	-11.8112
▁기할	-11.8112
전은	-11.8112
전망	-11.8114
▁말아달라	-11.8116
▁진행돼	-11.8116
▁파주	-11.8117
▁착각	-11.8118
▁검	-11.812
받고	-11.812
매장	-11.8124
▁내부에	-11.8125
▁금융의	-11.813
기아차	-11.8131
▁국면에서	-11.8131
▁투자금	-11.8131
제약	-11.8133
묵	-11.8134
▁균형발전	-11.8136
▁성과로	-11.8137
▁측면에서도	-11.8137
▁주인공	-11.8141
짓	-11.8142
▁기강	-11.8142
▁입맛	-11.8143
▁올해부터	-11.8146
▁되며	-11.8146
▁쏟아냈다	-11.8146
국민카드	-11.8147
▁권역별	-11.8147
▁선행돼야	-11.8147
▁빛나	-11.8148
▁상황이기	-11.8149
▁조치할	-11.8151
▁회복과	-11.8152
▁주민과	-11.8152
▁것이어서	-11.8153
▁국내총생산	-11.8154
▁테마	-11.8155
▁다르고	-11.8155
호가	-11.8155
▁직격탄을	-11.8156
▁역사관	-11.8157
보라	-11.8158
▁교실	-11.8158
▁전수조사	-11.816
▁정몽준	-11.816
▁펴	-11.8161
▁하루에	-11.8161
▁추가적	-11.8161
시리즈	-11.8163
▁미안한	-11.8164
▁대미	-11.8164
▁교과부	-11.8165
▁가하고	-11.8165
▁밥을	-11.8166
▁외치는	-11.8167
▁고질적	-11.8167
▁개편안	-11.8168
▁강경화	-11.8168
▁신고한	-11.8168
특	-11.8171
기업으로	-11.8173
▁개입한	-11.8173
년으로	-11.8173
소설	-11.8173
겨울	-11.8175
▁제작진	-11.8176
▁펼치겠다	-11.8177
최씨는	-11.8178
▁굳	-11.8179
▁디자인과	-11.8179
▁존중해	-11.818
▁감소하고	-11.818
▁계약에	-11.8181
▁면모	-11.8181
▁자연스러운	-11.8181
▁내수시장	-11.8181
▁높아지면서	-11.8182
▁정리하고	-11.8183
▁이종	-11.8184
보겠다	-11.8184
▁수험생	-11.8184
▁소방당국	-11.8187
▁일본인	-11.8188
보자	-11.8188
정권교체	-11.8188
▁해소에	-11.8189
▁안드로이드	-11.819
▁예측할	-11.819
▁민주주의와	-11.819
▁못했는데	-11.8192
의회	-11.8194
법원이	-11.8194
치를	-11.8194
▁선사할	-11.8194
했거나	-11.8195
▁스펙	-11.8196
d	-11.8199
결정	-11.8201
▁순직	-11.8203
이어	-11.8204
▁정권에서	-11.8205
▁여론에	-11.8208
▁추천한	-11.8208
회계	-11.8209
▁살아온	-11.8209
▁입는	-11.8209
▁저해하는	-11.821
엄	-11.821
▁유씨는	-11.8212
사업본부장은	-11.8214
그것	-11.8215
▁서민의	-11.8216
정의	-11.8216
▁사설	-11.822
▁구매하는	-11.8221
▁정도만	-11.8221
조건	-11.8222
▁신씨는	-11.8223
▁아내가	-11.8223
▁돌리고	-11.8223
▁R	-11.8225
▁마음과	-11.8225
▁제지	-11.8225
내역	-11.8226
▁현대자동차	-11.8226
▁변호인이	-11.8228
시키려는	-11.8229
▁먹었다	-11.823
▁고씨는	-11.823
현역	-11.8231
민족	-11.8232
▁호전	-11.8232
▁정부여당	-11.8234
▁EBS	-11.8234
네이버	-11.8235
일반적으로	-11.8235
▁잃을	-11.8236
▁있었으나	-11.8236
▁선보여	-11.8236
▁아니어서	-11.8236
해줬다	-11.8237
단의	-11.8241
▁중인데	-11.8242
▁금메달	-11.8245
판을	-11.8245
비전	-11.8245
성에	-11.8246
▁외부에서	-11.8246
▁뛰어나다	-11.8246
▁없었다는	-11.8247
에서만	-11.8247
▁변호사의	-11.8247
루수	-11.8247
상장	-11.8251
심이	-11.8251
▁나라로	-11.8251
▁컨디션	-11.8252
▁모색하고	-11.8253
▁평가는	-11.8253
▁태도에	-11.8253
▁준엄	-11.8254
▁확신이	-11.8255
▁정보는	-11.8255
▁제동	-11.8255
▁무엇보다도	-11.8255
인방	-11.8255
▁외면한	-11.8256
▁강구해야	-11.8256
▁강화로	-11.8256
▁적용될	-11.8257
▁지친	-11.8258
▁단어를	-11.8259
▁권익	-11.826
했더니	-11.826
인도네시아	-11.826
▁펼치는	-11.8261
▁마무리할	-11.8264
▁들려	-11.8264
▁가상	-11.8265
▁배구	-11.8265
▁관례	-11.8265
▁넘을	-11.8265
▁교육감이	-11.8265
자녀	-11.8266
김영란법	-11.8266
▁않거나	-11.8267
▁이통사	-11.8267
▁강구하겠다	-11.8268
▁전하는	-11.8269
▁예전에	-11.827
▁양육	-11.827
▁최강	-11.8272
위에서	-11.8273
▁써서	-11.8274
▁구성하는	-11.8274
▁효과로	-11.8276
이용	-11.8276
▁꼬리	-11.8277
▁믿는	-11.8278
▁언급할	-11.8281
▁떠나서	-11.8282
▁모색해야	-11.8284
▁정보기술	-11.8284
면접	-11.8284
▁돼있다	-11.8285
▁구도	-11.8285
▁대통령으로	-11.8287
동물	-11.8288
▁소원	-11.8289
▁원로	-11.8291
굉장히	-11.8291
▁책정	-11.8291
명절	-11.8291
다음달	-11.8292
▁아이들과	-11.8294
▁공부하고	-11.8295
▁철폐	-11.8295
▁착공	-11.8296
▁나아질	-11.8297
▁어긋나는	-11.8297
제조업	-11.8297
▁청년일자리	-11.8297
▁뇌물죄	-11.8298
▁번이나	-11.8298
▁기뻐했다	-11.8299
삼성이	-11.8301
▁정병국	-11.8303
▁진정성이	-11.8303
▁이루지	-11.8304
▁참여하게	-11.8304
▁명예회장	-11.8304
여기서	-11.8304
▁작년에	-11.8305
▁들었는데	-11.8306
▁겨냥했다	-11.8306
▁메르켈	-11.8307
▁기쁨	-11.8308
▁입장에서도	-11.8308
▁오래된	-11.8309
문제에	-11.8309
▁조업	-11.8309
▁한은이	-11.8312
▁보이스피싱	-11.8312
▁개선의	-11.8313
월에도	-11.8314
▁만나지	-11.8314
▁투구를	-11.8314
▁영원	-11.8315
근거	-11.8315
▁가했다	-11.8316
목적	-11.8317
▁사서	-11.8318
▁기일	-11.832
브렉시트	-11.8321
▁경위에	-11.8324
▁협동조합	-11.8324
부품	-11.8326
▁주목하고	-11.8327
▁기쁘고	-11.8329
▁김관영	-11.8329
▁태어나	-11.833
▁극찬했다	-11.833
▁감소할	-11.8331
▁실습	-11.8331
차로	-11.8331
▁불렀다	-11.8332
▁논의와	-11.8333
페이	-11.8334
▁특별사면	-11.8335
▁국가경제	-11.8336
▁시인했다	-11.8336
▁라이프	-11.8336
▁공소시효	-11.8337
▁아이들은	-11.8338
▁마드리드	-11.834
▁해석할	-11.8341
▁구성할	-11.8341
▁광주에서	-11.8342
▁사유로	-11.8342
▁학기	-11.8343
경찰청	-11.8344
▁상고	-11.8344
위해	-11.8345
▁드러내기	-11.8346
▁입금	-11.8348
▁생각했던	-11.8349
▁지역별	-11.8349
▁따르지	-11.8349
보건	-11.8349
▁랩	-11.8349
▁우회	-11.835
▁찾는다	-11.835
▁시급	-11.835
▁운영되는	-11.8351
▁세대의	-11.8352
▁이양	-11.8352
▁의원들도	-11.8352
▁정산	-11.8353
▁마인드	-11.8354
▁계획과	-11.8356
▁알리	-11.8357
▁추정치	-11.8358
▁있긴	-11.8359
▁문책	-11.8359
▁실었다	-11.836
권력	-11.8362
▁다채로운	-11.8362
독재	-11.8364
리가	-11.8364
▁교황	-11.8365
▁고객사	-11.8365
▁부족하다는	-11.8366
▁정청래	-11.8367
▁의외	-11.8367
▁내려가	-11.8367
현실적으로	-11.8367
들끼리	-11.8367
▁보느냐	-11.8367
▁개정안에	-11.8367
▁능동적으로	-11.8368
▁당당한	-11.8368
▁운영과	-11.8369
▁연기를	-11.8369
▁결합해	-11.8371
위권	-11.8372
▁다가올	-11.8374
▁케이스	-11.8375
▁초석	-11.8377
기준금리	-11.8378
사례	-11.8378
▁이주	-11.8379
▁예정이며	-11.838
▁공격에	-11.838
인데다	-11.838
▁상승하고	-11.8381
▁청와대를	-11.8381
▁제기하고	-11.8381
농촌	-11.8383
▁탄도	-11.8384
▁퇴근	-11.8387
▁털어놓았다	-11.8389
▁대학생들	-11.8392
▁변화하고	-11.8392
▁집필	-11.8393
▁만장일치로	-11.8394
하자마자	-11.8395
▁마땅히	-11.8396
▁정파	-11.8396
플레이	-11.8396
지도록	-11.8397
헌법재판소	-11.8397
▁그럼	-11.8397
▁참석하는	-11.8397
▁스피드	-11.8399
▁실체	-11.8399
▁인출	-11.84
▁독려	-11.84
▁스프링캠프	-11.84
▁바꾸지	-11.8402
▁논의된	-11.8402
▁예단	-11.8402
검찰에서	-11.8404
시민의	-11.8404
▁학부모들	-11.8404
▁우호	-11.8404
▁요원	-11.8405
누군가	-11.8405
▁공무원들이	-11.8406
▁임명한	-11.8406
▁처벌받	-11.8406
▁어울리는	-11.8407
▁수록	-11.8408
해지는	-11.8408
비대위	-11.8409
▁유씨	-11.8409
▁의원총회	-11.841
▁유동성이	-11.8411
▁귀가	-11.8412
▁중에도	-11.8413
위원회의	-11.8413
▁쟁점이	-11.8413
주면	-11.8414
▁부친	-11.8415
▁본래	-11.8415
▁놓인	-11.8415
▁주사	-11.8416
▁선택해	-11.8418
▁발언에서	-11.8419
▁드러날	-11.842
▁구했다	-11.8421
▁충고했다	-11.8421
▁정보위	-11.8422
▁창설	-11.8422
▁벤처기업	-11.8423
▁어렵기	-11.8423
▁오신환	-11.8423
▁보도와	-11.8424
실패	-11.8427
▁소홀	-11.8429
▁법안은	-11.8429
▁춘추관에서	-11.8431
국은	-11.8431
▁자유가	-11.8432
▁건강이	-11.8432
▁부진이	-11.8432
▁마케팅팀	-11.8433
▁줄은	-11.8433
▁대하여	-11.8433
▁풀기	-11.8434
▁기해야	-11.8434
▁빛을	-11.8434
▁싫어	-11.8436
지로	-11.8436
▁브로커	-11.8437
▁조례	-11.8439
▁역임	-11.8439
장소	-11.8439
▁시각으로	-11.844
▁요인에	-11.844
▁장세	-11.844
▁사회자	-11.8441
정부에서	-11.8442
▁논술	-11.8448
▁하는게	-11.8449
▁고개	-11.8449
▁안하고	-11.8449
▁품고	-11.8449
▁공간에서	-11.845
▁넘길	-11.8452
▁활력	-11.8452
▁"2020	-11.8453
▁차례에	-11.8455
▁맞는다	-11.8455
▁병력	-11.8456
▁태스크포스	-11.8456
▁분량	-11.8457
▁불가피할	-11.8457
▁트럼프는	-11.8457
▁단단	-11.8458
▁찍어	-11.8459
▁해임건의안	-11.8459
▁떨어지	-11.846
▁챔피언	-11.846
심을	-11.8461
8%	-11.8463
▁활동과	-11.8464
▁기획한	-11.8466
▁최고위원회의	-11.8466
박람회	-11.8469
▁이행하지	-11.847
▁블록체인	-11.8471
▁공감했다	-11.8474
▁차지	-11.8476
▁차종	-11.8476
▁서명을	-11.8477
▁응할	-11.8478
▁감소로	-11.8478
▁사무총장이	-11.8479
▁출연한	-11.848
▁선의의	-11.848
▁쓰면	-11.8481
▁잦은	-11.8482
특별히	-11.8482
▁문제인	-11.8482
프로야구	-11.8482
노동개혁	-11.8482
정책과	-11.8484
정원	-11.8486
마리	-11.8487
▁올려야	-11.8488
▁서비스산업	-11.8488
해설위원은	-11.8488
▁주장했지만	-11.849
공시	-11.849
명백하게	-11.8492
▁하겠느냐	-11.8492
증가	-11.8494
▁김성	-11.8494
▁대책도	-11.8494
▁최씨에게	-11.8496
▁파도	-11.8497
▁현실에서	-11.8497
▁드러나	-11.8497
▁유서	-11.85
명령	-11.85
▁공모전	-11.85
김정일	-11.8503
▁정치인들이	-11.8504
친노	-11.8505
차전에서	-11.8505
▁구성하고	-11.8505
▁하기에	-11.8507
▁먹으면	-11.8507
▁푸	-11.8507
▁인턴	-11.851
▁이벤트가	-11.851
하시고	-11.851
▁매주	-11.8511
▁로버트	-11.8511
작가	-11.8512
▁아니겠냐	-11.8513
▁콘셉트	-11.8514
▁화해와	-11.8514
▁유효하다	-11.8514
시다	-11.8515
피해자가	-11.8515
▁부여하는	-11.8515
▁퍼포먼스	-11.8515
▁주의해야	-11.8516
▁실물경제	-11.8516
▁전문성이	-11.8516
▁수석과	-11.8519
▁노하우와	-11.8521
▁범죄자	-11.8521
▁수입차	-11.8522
평창	-11.8524
▁보고한	-11.8525
▁수상한	-11.8526
▁애니메이션	-11.8526
▁시작하면	-11.8527
▁한창	-11.8527
▁재건	-11.8527
▁안심할	-11.8528
과정	-11.8529
▁놓여	-11.853
▁최대주주	-11.8531
▁조차	-11.8531
▁서거	-11.8532
건이	-11.8532
▁응답자	-11.8533
▁도망	-11.8533
경기에	-11.8535
▁온도	-11.8535
살인	-11.8535
▁강구	-11.8536
▁공정위는	-11.8536
▁공로	-11.8536
▁강력하고	-11.8537
사퇴	-11.8538
▁중고차	-11.8538
▁보호해야	-11.8539
▁조성하고	-11.854
해왔던	-11.8541
▁경찰서	-11.8542
▁기능성	-11.8543
역량	-11.8544
▁기다릴	-11.8544
▁섞인	-11.8544
▁기술에	-11.8544
조범현	-11.8544
▁사라질	-11.8544
▁아마존	-11.8544
[...]
